#include "magic_wand_model_data.h"


// We need to keep the data array aligned on some architectures.

#ifdef __has_attribute

#define HAVE_ATTRIBUTE(x) __has_attribute(x)

#else

#define HAVE_ATTRIBUTE(x) 0

#endif

#if HAVE_ATTRIBUTE(aligned) || (defined(__GNUC__) && !defined(__clang__))

#define DATA_ALIGN_ATTRIBUTE __attribute__((aligned(4)))

#else

#define DATA_ALIGN_ATTRIBUTE

#endif


const unsigned char g_magic_wand_model_data[] DATA_ALIGN_ATTRIBUTE = {

   0x08, 0x00, 0x00, 0x00, 0x54, 0x46, 0x4c, 0x33, 0x62, 0xff, 0xff, 0xff,
  0x03, 0x00, 0x00, 0x00, 0x10, 0x00, 0x00, 0x00, 0x24, 0x00, 0x00, 0x00,
  0x78, 0x00, 0x00, 0x00, 0x24, 0x00, 0x00, 0x00, 0x05, 0x00, 0x00, 0x00,
  0x78, 0x05, 0x00, 0x00, 0xb0, 0x04, 0x00, 0x00, 0xe0, 0x02, 0x00, 0x00,
  0x60, 0x02, 0x00, 0x00, 0x54, 0x01, 0x00, 0x00, 0x01, 0x00, 0x00, 0x00,
  0x78, 0x00, 0x00, 0x00, 0x13, 0x00, 0x00, 0x00, 0x18, 0x30, 0x00, 0x00,
  0x14, 0x30, 0x00, 0x00, 0x20, 0x2f, 0x00, 0x00, 0xa8, 0x2e, 0x00, 0x00,
  0x3c, 0x2e, 0x00, 0x00, 0xec, 0x11, 0x00, 0x00, 0x98, 0x10, 0x00, 0x00,
  0xbc, 0x0e, 0x00, 0x00, 0x60, 0x06, 0x00, 0x00, 0xfc, 0x05, 0x00, 0x00,
  0x78, 0x05, 0x00, 0x00, 0xec, 0x2f, 0x00, 0x00, 0xe8, 0x2f, 0x00, 0x00,
  0xe4, 0x2f, 0x00, 0x00, 0xe0, 0x2f, 0x00, 0x00, 0xdc, 0x2f, 0x00, 0x00,
  0xd8, 0x2f, 0x00, 0x00, 0xd4, 0x2f, 0x00, 0x00, 0xd0, 0x2f, 0x00, 0x00,
  0x0f, 0x00, 0x00, 0x00, 0x4d, 0x4c, 0x49, 0x52, 0x20, 0x43, 0x6f, 0x6e,
  0x76, 0x65, 0x72, 0x74, 0x65, 0x64, 0x2e, 0x00, 0x00, 0x00, 0x0e, 0x00,
  0x18, 0x00, 0x04, 0x00, 0x08, 0x00, 0x0c, 0x00, 0x10, 0x00, 0x14, 0x00,
  0x0e, 0x00, 0x00, 0x00, 0x14, 0x00, 0x00, 0x00, 0x5c, 0x00, 0x00, 0x00,
  0x60, 0x00, 0x00, 0x00, 0x64, 0x00, 0x00, 0x00, 0x84, 0x00, 0x00, 0x00,
  0x12, 0x00, 0x00, 0x00, 0x48, 0x2f, 0x00, 0x00, 0xe4, 0x2e, 0x00, 0x00,
  0x3c, 0x2e, 0x00, 0x00, 0xd8, 0x2d, 0x00, 0x00, 0x70, 0x2d, 0x00, 0x00,
  0x1c, 0x11, 0x00, 0x00, 0xc0, 0x0f, 0x00, 0x00, 0xe4, 0x0d, 0x00, 0x00,
  0xa0, 0x05, 0x00, 0x00, 0x3c, 0x05, 0x00, 0x00, 0xb0, 0x04, 0x00, 0x00,
  0xe8, 0x03, 0x00, 0x00, 0x38, 0x03, 0x00, 0x00, 0xa4, 0x02, 0x00, 0x00,
  0x10, 0x02, 0x00, 0x00, 0x90, 0x01, 0x00, 0x00, 0xfc, 0x00, 0x00, 0x00,
  0x80, 0x00, 0x00, 0x00, 0x01, 0x00, 0x00, 0x00, 0x00, 0x00, 0x00, 0x00,
  0x01, 0x00, 0x00, 0x00, 0x11, 0x00, 0x00, 0x00, 0x08, 0x00, 0x00, 0x00,
  0x1c, 0x04, 0x00, 0x00, 0x58, 0x03, 0x00, 0x00, 0xc8, 0x02, 0x00, 0x00,
  0x24, 0x02, 0x00, 0x00, 0xac, 0x01, 0x00, 0x00, 0x10, 0x01, 0x00, 0x00,
  0x94, 0x00, 0x00, 0x00, 0x10, 0x00, 0x00, 0x00, 0x04, 0x00, 0x00, 0x00,
  0x6d, 0x61, 0x69, 0x6e, 0x00, 0x00, 0x00, 0x00, 0x8e, 0xff, 0xff, 0xff,
  0x00, 0x00, 0x00, 0x09, 0x04, 0x00, 0x00, 0x00, 0x1c, 0x00, 0x00, 0x00,
  0x10, 0x00, 0x00, 0x00, 0x04, 0x00, 0x00, 0x00, 0x0a, 0xd2, 0xff, 0xff,
  0x00, 0x00, 0x80, 0x3f, 0x01, 0x00, 0x00, 0x00, 0x11, 0x00, 0x00, 0x00,
  0x01, 0x00, 0x00, 0x00, 0x10, 0x00, 0x00, 0x00, 0xf6, 0xfb, 0xff, 0xff,
  0x00, 0x00, 0x00, 0x19, 0x01, 0x00, 0x00, 0x00, 0x8a, 0xd1, 0xff, 0xff,
  0x10, 0x00, 0x00, 0x00, 0x12, 0x00, 0x00, 0x00, 0x14, 0x00, 0x00, 0x00,
  0x20, 0x00, 0x00, 0x00, 0x02, 0x00, 0x00, 0x00, 0x01, 0x00, 0x00, 0x00,
  0x04, 0x00, 0x00, 0x00, 0x08, 0x00, 0x00, 0x00, 0x49, 0x64, 0x65, 0x6e,
  0x74, 0x69, 0x74, 0x79, 0x00, 0x00, 0x00, 0x00, 0xc4, 0xd1, 0xff, 0xff,
  0x00, 0x00, 0x0e, 0x00, 0x18, 0x00, 0x08, 0x00, 0x0c, 0x00, 0x10, 0x00,
  0x07, 0x00, 0x14, 0x00, 0x0e, 0x00, 0x00, 0x00, 0x00, 0x00, 0x00, 0x08,
  0x03, 0x00, 0x00, 0x00, 0x18, 0x00, 0x00, 0x00, 0x0c, 0x00, 0x00, 0x00,
  0x04, 0x00, 0x00, 0x00, 0x98, 0xd1, 0xff, 0xff, 0x01, 0x00, 0x00, 0x00,
  0x10, 0x00, 0x00, 0x00, 0x03, 0x00, 0x00, 0x00, 0x0f, 0x00, 0x00, 0x00,
  0x05, 0x00, 0x00, 0x00, 0x02, 0x00, 0x00, 0x00, 0x02, 0xd2, 0xff, 0xff,
  0x10, 0x00, 0x00, 0x00, 0x11, 0x00, 0x00, 0x00, 0x14, 0x00, 0x00, 0x00,
  0x30, 0x00, 0x00, 0x00, 0x02, 0x00, 0x00, 0x00, 0x01, 0x00, 0x00, 0x00,
  0x04, 0x00, 0x00, 0x00, 0x1a, 0x00, 0x00, 0x00, 0x73, 0x65, 0x71, 0x75,
  0x65, 0x6e, 0x74, 0x69, 0x61, 0x6c, 0x2f, 0x64, 0x65, 0x6e, 0x73, 0x65,
  0x5f, 0x31, 0x2f, 0x42, 0x69, 0x61, 0x73, 0x41, 0x64, 0x64, 0x00, 0x00,
  0xf4, 0xd1, 0xff, 0xff, 0xd6, 0xfd, 0xff, 0xff, 0x00, 0x00, 0x00, 0x08,
  0x03, 0x00, 0x00, 0x00, 0x24, 0x00, 0x00, 0x00, 0x18, 0x00, 0x00, 0x00,
  0x0c, 0x00, 0x00, 0x00, 0x00, 0x00, 0x06, 0x00, 0x08, 0x00, 0x07, 0x00,
  0x06, 0x00, 0x00, 0x00, 0x00, 0x00, 0x00, 0x01, 0x01, 0x00, 0x00, 0x00,
  0x0f, 0x00, 0x00, 0x00, 0x03, 0x00, 0x00, 0x00, 0x0e, 0x00, 0x00, 0x00,
  0x04, 0x00, 0x00, 0x00, 0x01, 0x00, 0x00, 0x00, 0xfe, 0xfc, 0xff, 0xff,
  0x00, 0x00, 0x00, 0x09, 0x01, 0x00, 0x00, 0x00, 0x92, 0xd2, 0xff, 0xff,
  0x10, 0x00, 0x00, 0x00, 0x10, 0x00, 0x00, 0x00, 0x14, 0x00, 0x00, 0x00,
  0x2c, 0x00, 0x00, 0x00, 0x02, 0x00, 0x00, 0x00, 0x01, 0x00, 0x00, 0x00,
  0x10, 0x00, 0x00, 0x00, 0x15, 0x00, 0x00, 0x00, 0x73, 0x65, 0x71, 0x75,
  0x65, 0x6e, 0x74, 0x69, 0x61, 0x6c, 0x2f, 0x64, 0x65, 0x6e, 0x73, 0x65,
  0x2f, 0x52, 0x65, 0x6c, 0x75, 0x00, 0x00, 0x00, 0xd8, 0xd2, 0xff, 0xff,
  0x00, 0x00, 0x0a, 0x00, 0x10, 0x00, 0x04, 0x00, 0x08, 0x00, 0x0c, 0x00,
  0x0a, 0x00, 0x00, 0x00, 0x02, 0x00, 0x00, 0x00, 0x10, 0x00, 0x00, 0x00,
  0x04, 0x00, 0x00, 0x00, 0x01, 0x00, 0x00, 0x00, 0x0e, 0x00, 0x00, 0x00,
  0x02, 0x00, 0x00, 0x00, 0x0d, 0x00, 0x00, 0x00, 0x03, 0x00, 0x00, 0x00,
  0x7a, 0xfd, 0xff, 0xff, 0x00, 0x00, 0x00, 0x16, 0x01, 0x00, 0x00, 0x00,
  0x0e, 0xd3, 0xff, 0xff, 0x10, 0x00, 0x00, 0x00, 0x0f, 0x00, 0x00, 0x00,
  0x14, 0x00, 0x00, 0x00, 0x30, 0x00, 0x00, 0x00, 0x02, 0x00, 0x00, 0x00,
  0x01, 0x00, 0x00, 0x00, 0x70, 0x00, 0x00, 0x00, 0x1a, 0x00, 0x00, 0x00,
  0x73, 0x65, 0x71, 0x75, 0x65, 0x6e, 0x74, 0x69, 0x61, 0x6c, 0x2f, 0x66,
  0x6c, 0x61, 0x74, 0x74, 0x65, 0x6e, 0x2f, 0x52, 0x65, 0x73, 0x68, 0x61,
  0x70, 0x65, 0x00, 0x00, 0x00, 0xd3, 0xff, 0xff, 0xe2, 0xfe, 0xff, 0xff,
  0x00, 0x00, 0x00, 0x05, 0x01, 0x00, 0x00, 0x00, 0x38, 0x00, 0x00, 0x00,
  0x2c, 0x00, 0x00, 0x00, 0x14, 0x00, 0x00, 0x00, 0x00, 0x00, 0x0e, 0x00,
  0x14, 0x00, 0x00, 0x00, 0x10, 0x00, 0x0c, 0x00, 0x08, 0x00, 0x04, 0x00,
  0x0e, 0x00, 0x00, 0x00, 0x03, 0x00, 0x00, 0x00, 0x01, 0x00, 0x00, 0x00,
  0x03, 0x00, 0x00, 0x00, 0x01, 0x00, 0x00, 0x00, 0x01, 0x00, 0x00, 0x00,
  0x0d, 0x00, 0x00, 0x00, 0x01, 0x00, 0x00, 0x00, 0x0c, 0x00, 0x00, 0x00,
  0x9e, 0xd3, 0xff, 0xff, 0x10, 0x00, 0x00, 0x00, 0x0e, 0x00, 0x00, 0x00,
  0x1c, 0x00, 0x00, 0x00, 0x40, 0x00, 0x00, 0x00, 0x04, 0x00, 0x00, 0x00,
  0x01, 0x00, 0x00, 0x00, 0x07, 0x00, 0x00, 0x00, 0x01, 0x00, 0x00, 0x00,
  0x10, 0x00, 0x00, 0x00, 0x22, 0x00, 0x00, 0x00, 0x73, 0x65, 0x71, 0x75,
  0x65, 0x6e, 0x74, 0x69, 0x61, 0x6c, 0x2f, 0x6d, 0x61, 0x78, 0x5f, 0x70,
  0x6f, 0x6f, 0x6c, 0x69, 0x6e, 0x67, 0x32, 0x64, 0x5f, 0x31, 0x2f, 0x4d,
  0x61, 0x78, 0x50, 0x6f, 0x6f, 0x6c, 0x00, 0x00, 0xa0, 0xd3, 0xff, 0xff,
  0xc2, 0xfe, 0xff, 0xff, 0x00, 0x00, 0x00, 0x01, 0x24, 0x00, 0x00, 0x00,
  0x18, 0x00, 0x00, 0x00, 0x04, 0x00, 0x00, 0x00, 0xb4, 0xfe, 0xff, 0xff,
  0x01, 0x00, 0x00, 0x00, 0x01, 0x00, 0x00, 0x00, 0x00, 0x00, 0x00, 0x01,
  0x01, 0x00, 0x00, 0x00, 0x0c, 0x00, 0x00, 0x00, 0x03, 0x00, 0x00, 0x00,
  0x0b, 0x00, 0x00, 0x00, 0x07, 0x00, 0x00, 0x00, 0x09, 0x00, 0x00, 0x00,
  0x2e, 0xd4, 0xff, 0xff, 0x10, 0x00, 0x00, 0x00, 0x0d, 0x00, 0x00, 0x00,
  0x1c, 0x00, 0x00, 0x00, 0x2c, 0x00, 0x00, 0x00, 0x04, 0x00, 0x00, 0x00,
  0x01, 0x00, 0x00, 0x00, 0x15, 0x00, 0x00, 0x00, 0x01, 0x00, 0x00, 0x00,
  0x10, 0x00, 0x00, 0x00, 0x0c, 0x00, 0x00, 0x00, 0x74, 0x66, 0x6c, 0x2e,
  0x63, 0x6f, 0x6e, 0x76, 0x5f, 0x32, 0x64, 0x31, 0x00, 0x00, 0x00, 0x00,
  0x74, 0xd4, 0xff, 0xff, 0x00, 0x00, 0x0e, 0x00, 0x1a, 0x00, 0x08, 0x00,
  0x0c, 0x00, 0x10, 0x00, 0x07, 0x00, 0x14, 0x00, 0x0e, 0x00, 0x00, 0x00,
  0x00, 0x00, 0x00, 0x05, 0x01, 0x00, 0x00, 0x00, 0x3c, 0x00, 0x00, 0x00,
  0x30, 0x00, 0x00, 0x00, 0x14, 0x00, 0x00, 0x00, 0x00, 0x00, 0x0e, 0x00,
  0x18, 0x00, 0x17, 0x00, 0x10, 0x00, 0x0c, 0x00, 0x08, 0x00, 0x04, 0x00,
  0x0e, 0x00, 0x00, 0x00, 0x03, 0x00, 0x00, 0x00, 0x03, 0x00, 0x00, 0x00,
  0x03, 0x00, 0x00, 0x00, 0x03, 0x00, 0x00, 0x00, 0x00, 0x00, 0x00, 0x01,
  0x01, 0x00, 0x00, 0x00, 0x0b, 0x00, 0x00, 0x00, 0x01, 0x00, 0x00, 0x00,
  0x0a, 0x00, 0x00, 0x00, 0x46, 0xff, 0xff, 0xff, 0x00, 0x00, 0x00, 0x11,
  0x01, 0x00, 0x00, 0x00, 0xda, 0xd4, 0xff, 0xff, 0x10, 0x00, 0x00, 0x00,
  0x0c, 0x00, 0x00, 0x00, 0x1c, 0x00, 0x00, 0x00, 0x40, 0x00, 0x00, 0x00,
  0x04, 0x00, 0x00, 0x00, 0x01, 0x00, 0x00, 0x00, 0x15, 0x00, 0x00, 0x00,
  0x01, 0x00, 0x00, 0x00, 0x08, 0x00, 0x00, 0x00, 0x20, 0x00, 0x00, 0x00,
  0x73, 0x65, 0x71, 0x75, 0x65, 0x6e, 0x74, 0x69, 0x61, 0x6c, 0x2f, 0x6d,
  0x61, 0x78, 0x5f, 0x70, 0x6f, 0x6f, 0x6c, 0x69, 0x6e, 0x67, 0x32, 0x64,
  0x2f, 0x4d, 0x61, 0x78, 0x50, 0x6f, 0x6f, 0x6c, 0x00, 0x00, 0x00, 0x00,
  0x34, 0xd5, 0xff, 0xff, 0x00, 0x00, 0x0e, 0x00, 0x14, 0x00, 0x00, 0x00,
  0x08, 0x00, 0x0c, 0x00, 0x07, 0x00, 0x10, 0x00, 0x0e, 0x00, 0x00, 0x00,
  0x00, 0x00, 0x00, 0x01, 0x30, 0x00, 0x00, 0x00, 0x24, 0x00, 0x00, 0x00,
  0x10, 0x00, 0x00, 0x00, 0x0c, 0x00, 0x10, 0x00, 0x00, 0x00, 0x04, 0x00,
  0x08, 0x00, 0x0f, 0x00, 0x0c, 0x00, 0x00, 0x00, 0x01, 0x00, 0x00, 0x00,
  0x01, 0x00, 0x00, 0x00, 0x00, 0x00, 0x00, 0x01, 0x01, 0x00, 0x00, 0x00,
  0x0a, 0x00, 0x00, 0x00, 0x03, 0x00, 0x00, 0x00, 0x00, 0x00, 0x00, 0x00,
  0x06, 0x00, 0x00, 0x00, 0x08, 0x00, 0x00, 0x00, 0x00, 0x00, 0x0a, 0x00,
  0x0c, 0x00, 0x07, 0x00, 0x00, 0x00, 0x08, 0x00, 0x0a, 0x00, 0x00, 0x00,
  0x00, 0x00, 0x00, 0x03, 0x01, 0x00, 0x00, 0x00, 0x9e, 0xd5, 0xff, 0xff,
  0x10, 0x00, 0x00, 0x00, 0x0b, 0x00, 0x00, 0x00, 0x1c, 0x00, 0x00, 0x00,
  0x28, 0x00, 0x00, 0x00, 0x04, 0x00, 0x00, 0x00, 0x01, 0x00, 0x00, 0x00,
  0x40, 0x00, 0x00, 0x00, 0x03, 0x00, 0x00, 0x00, 0x08, 0x00, 0x00, 0x00,
  0x0b, 0x00, 0x00, 0x00, 0x74, 0x66, 0x6c, 0x2e, 0x63, 0x6f, 0x6e, 0x76,
  0x5f, 0x32, 0x64, 0x00, 0x88, 0xd5, 0xff, 0xff, 0x7e, 0xd6, 0xff, 0xff,
  0x04, 0x00, 0x00, 0x00, 0x40, 0x00, 0x00, 0x00, 0x6d, 0xbf, 0xcf, 0x3e,
  0x72, 0xde, 0xe1, 0xbc, 0xda, 0x37, 0x34, 0xbe, 0xee, 0x92, 0x1f, 0xbf,
  0xe7, 0x3c, 0x0c, 0xbf, 0xf8, 0x79, 0x32, 0x3d, 0x1f, 0x65, 0x02, 0xbe,
  0xa9, 0xf6, 0xb6, 0x3f, 0x98, 0xf1, 0x0b, 0xbf, 0xe6, 0x5b, 0x8a, 0xbe,
  0x8f, 0xe5, 0xb9, 0xbe, 0x53, 0xa5, 0xa8, 0xbe, 0xba, 0xc7, 0x33, 0xbf,
  0x10, 0x88, 0x4a, 0xbc, 0x24, 0x95, 0x69, 0xbe, 0x64, 0x65, 0xa7, 0xbe,
  0x26, 0xd6, 0xff, 0xff, 0x10, 0x00, 0x00, 0x00, 0x0a, 0x00, 0x00, 0x00,
  0x10, 0x00, 0x00, 0x00, 0x20, 0x00, 0x00, 0x00, 0x01, 0x00, 0x00, 0x00,
  0x10, 0x00, 0x00, 0x00, 0x0d, 0x00, 0x00, 0x00, 0x73, 0x74, 0x64, 0x2e,
  0x63, 0x6f, 0x6e, 0x73, 0x74, 0x61, 0x6e, 0x74, 0x31, 0x00, 0x00, 0x00,
  0x08, 0xd6, 0xff, 0xff, 0xfe, 0xd6, 0xff, 0xff, 0x04, 0x00, 0x00, 0x00,
  0x20, 0x00, 0x00, 0x00, 0x0a, 0xa3, 0xf3, 0xbe, 0xfc, 0x50, 0x80, 0xbf,
  0xef, 0x4b, 0x81, 0xbf, 0x4e, 0x8a, 0x10, 0x3e, 0xa9, 0xf7, 0x80, 0xbe,
  0xcc, 0x77, 0xcb, 0xbe, 0x67, 0xc0, 0x3f, 0xbf, 0xb3, 0x54, 0x37, 0xbf,
  0x86, 0xd6, 0xff, 0xff, 0x10, 0x00, 0x00, 0x00, 0x09, 0x00, 0x00, 0x00,
  0x10, 0x00, 0x00, 0x00, 0x20, 0x00, 0x00, 0x00, 0x01, 0x00, 0x00, 0x00,
  0x08, 0x00, 0x00, 0x00, 0x0c, 0x00, 0x00, 0x00, 0x73, 0x74, 0x64, 0x2e,
  0x63, 0x6f, 0x6e, 0x73, 0x74, 0x61, 0x6e, 0x74, 0x00, 0x00, 0x00, 0x00,
  0x68, 0xd6, 0xff, 0xff, 0x5e, 0xd7, 0xff, 0xff, 0x04, 0x00, 0x00, 0x00,
  0x00, 0x08, 0x00, 0x00, 0x67, 0xae, 0xc5, 0xbe, 0x14, 0x75, 0x96, 0x3c,
  0x78, 0x3e, 0x8c, 0xbd, 0xd4, 0x43, 0xa4, 0xbd, 0x53, 0x43, 0xe4, 0xbd,
  0xe9, 0xa6, 0x4e, 0xbf, 0x03, 0x6e, 0x4e, 0xbe, 0x5e, 0x99, 0xe0, 0xbe,
  0x60, 0xbc, 0x02, 0xbe, 0x0f, 0xb7, 0x1c, 0x3d, 0x49, 0x8f, 0xca, 0x3e,
  0x15, 0x5a, 0x94, 0x3e, 0xd2, 0xd4, 0x15, 0x3d, 0x5f, 0xda, 0x0c, 0xbf,
  0xf3, 0x02, 0xde, 0x3d, 0x25, 0x85, 0xb5, 0xbe, 0x73, 0x2d, 0xd5, 0xbd,
  0x00, 0x44, 0x84, 0x3d, 0x7d, 0xae, 0x34, 0x3e, 0x91, 0xd5, 0x10, 0x3e,
  0x08, 0xd6, 0x6e, 0x3c, 0x90, 0xba, 0xa1, 0xbe, 0x16, 0x4d, 0xaf, 0x3d,
  0x57, 0xd4, 0x49, 0xbe, 0xd7, 0x06, 0xe1, 0xbd, 0x4b, 0x47, 0x5f, 0xbd,
  0x34, 0x42, 0x50, 0xbd, 0xb8, 0x18, 0x89, 0x3b, 0xbf, 0xc9, 0xa0, 0xbc,
  0xe7, 0xce, 0x9c, 0xbe, 0x09, 0x7f, 0x01, 0x3e, 0xfc, 0x09, 0xd6, 0xbc,
  0x48, 0x5c, 0xb1, 0x3e, 0x78, 0x93, 0xa6, 0x3e, 0x29, 0x14, 0x5d, 0xbd,
  0x8b, 0x34, 0xbd, 0xbd, 0x9d, 0xc6, 0x29, 0x3e, 0xdc, 0xdb, 0x43, 0xb9,
  0x8d, 0x7a, 0x6f, 0xbe, 0xb1, 0x1e, 0x22, 0x3c, 0x41, 0x19, 0xcf, 0x3d,
  0x97, 0x1b, 0xd8, 0xbd, 0x8f, 0xf3, 0x12, 0x3d, 0xed, 0xab, 0x21, 0xbe,
  0x14, 0xe5, 0x06, 0x3e, 0xc1, 0xd7, 0x25, 0x3e, 0xf9, 0x64, 0xa2, 0xbd,
  0xc9, 0x10, 0x79, 0xbd, 0xf7, 0x3f, 0x97, 0x3e, 0xd5, 0xb1, 0x13, 0xbe,
  0xf5, 0xc3, 0x3d, 0xbd, 0xa8, 0x5c, 0x5b, 0x3d, 0x98, 0x78, 0xa0, 0xbc,
  0xe9, 0xcf, 0x03, 0xbe, 0x0f, 0x90, 0x95, 0xbd, 0xa3, 0x52, 0x78, 0x3e,
  0x4c, 0xd0, 0x14, 0xbe, 0xdf, 0xfe, 0xb7, 0xbd, 0x85, 0x74, 0xd5, 0xbd,
  0xa8, 0xf8, 0x9a, 0xbd, 0x1d, 0xdb, 0xb5, 0xbd, 0xb7, 0xad, 0x2a, 0xbe,
  0xb3, 0xe5, 0xbe, 0xbd, 0x8c, 0xc6, 0x85, 0x3d, 0x21, 0xf1, 0x8d, 0xbd,
  0x6e, 0x73, 0x62, 0xbb, 0x46, 0x5b, 0x2a, 0xbd, 0x88, 0xff, 0x39, 0x3d,
  0x69, 0x9d, 0x92, 0xbd, 0x45, 0x44, 0xae, 0xbd, 0xd0, 0x71, 0x34, 0xbe,
  0x12, 0x61, 0x06, 0xbe, 0xd7, 0x72, 0xe8, 0xbd, 0x49, 0xf4, 0xa3, 0xbd,
  0x9c, 0x56, 0xc1, 0xbe, 0x5f, 0x2b, 0xd7, 0x3d, 0xe3, 0xdf, 0x85, 0xbe,
  0x30, 0xe7, 0xef, 0xbd, 0x97, 0x15, 0xbd, 0xbe, 0xc5, 0x61, 0xa0, 0xbe,
  0x77, 0x94, 0xaa, 0xbd, 0xa5, 0xe8, 0x4f, 0xbe, 0xc1, 0x58, 0xf4, 0xbe,
  0x0f, 0xe3, 0x1c, 0xbd, 0x9b, 0xe7, 0xa8, 0xbe, 0x7d, 0xdb, 0x32, 0xbc,
  0x84, 0x81, 0x06, 0xbd, 0xb7, 0xb7, 0xc9, 0xbd, 0xca, 0x93, 0x8c, 0xbc,
  0xa3, 0x4b, 0x1f, 0x3d, 0xbb, 0xb0, 0xb8, 0xbe, 0x16, 0x2b, 0x55, 0xbd,
  0x3d, 0x02, 0x59, 0xbe, 0x41, 0xc7, 0x1c, 0xbe, 0x1d, 0xcb, 0xc2, 0x3c,
  0xbc, 0x64, 0x8c, 0xbe, 0xaa, 0x07, 0x4e, 0xbd, 0x3a, 0xd5, 0xb8, 0xbd,
  0xeb, 0xe7, 0x92, 0xbc, 0x11, 0x0c, 0x55, 0xbf, 0x5a, 0xdb, 0x8b, 0xbe,
  0x60, 0x21, 0x91, 0xbe, 0xd8, 0x9d, 0x49, 0xbe, 0xc9, 0x56, 0xbf, 0xbe,
  0x1b, 0x55, 0x9b, 0xbd, 0xe2, 0x9b, 0x8b, 0xbb, 0x52, 0x68, 0xe7, 0x3c,
  0xd5, 0x28, 0x0d, 0xbf, 0x06, 0x9c, 0xd5, 0xbe, 0xb7, 0xa7, 0x41, 0x3e,
  0xe9, 0x57, 0xf5, 0xbd, 0x43, 0xc5, 0x5f, 0x3e, 0xc4, 0x6a, 0xcb, 0xbd,
  0xfa, 0x50, 0xe8, 0xbe, 0x53, 0x9d, 0xce, 0x3d, 0x2f, 0xa6, 0x96, 0x3d,
  0x2d, 0x0a, 0x41, 0xbc, 0xbd, 0x45, 0xff, 0x3e, 0x32, 0xe2, 0x88, 0xbd,
  0xf4, 0xce, 0xd8, 0x3c, 0xfb, 0xcc, 0x04, 0xbe, 0xef, 0x6e, 0xf3, 0x3b,
  0x41, 0xf5, 0x21, 0x3e, 0x61, 0x7d, 0xf2, 0x3e, 0x19, 0x9e, 0xfe, 0x3d,
  0x58, 0xcb, 0xe3, 0x3d, 0x7f, 0x85, 0x1a, 0x3d, 0x0e, 0xff, 0xf9, 0xbc,
  0x42, 0x86, 0xba, 0xbe, 0x09, 0xa1, 0xfc, 0x3e, 0x43, 0xda, 0xc3, 0x3d,
  0x43, 0x4e, 0x41, 0xbd, 0x4a, 0x4d, 0x19, 0xbe, 0xf1, 0xec, 0x9f, 0xbd,
  0xac, 0x8b, 0x3f, 0x3e, 0x67, 0x62, 0xa1, 0xbc, 0x73, 0x84, 0x82, 0xbe,
  0xec, 0x5f, 0x58, 0x3d, 0xb5, 0xe5, 0xb8, 0xbd, 0x68, 0x28, 0xed, 0x3d,
  0x23, 0x16, 0xdb, 0xbd, 0x5f, 0xcd, 0x94, 0x3e, 0x49, 0x7e, 0x33, 0x3e,
  0x0d, 0x60, 0x09, 0xbe, 0xc5, 0x5d, 0xca, 0xbe, 0x5c, 0x89, 0x0e, 0x3f,
  0x90, 0x21, 0xd6, 0x3d, 0x5e, 0xf2, 0x63, 0xbd, 0x5e, 0xdb, 0x36, 0xbe,
  0x8a, 0xd3, 0x4a, 0xbc, 0x85, 0x70, 0x5a, 0xbd, 0x07, 0x7a, 0x48, 0x3e,
  0x4d, 0x89, 0xbb, 0xbe, 0x0d, 0xd0, 0xbc, 0x3e, 0x00, 0x15, 0x06, 0x3e,
  0xaf, 0xf4, 0x45, 0xbd, 0x6c, 0x90, 0x22, 0xbe, 0xa3, 0x55, 0xf6, 0x3d,
  0xc7, 0x59, 0x86, 0x3e, 0xd4, 0x2e, 0xa8, 0x3d, 0x61, 0x28, 0xcd, 0xbc,
  0x0d, 0x14, 0x07, 0x3d, 0xac, 0x81, 0x3f, 0x3e, 0x12, 0x1d, 0xce, 0x3e,
  0x86, 0x29, 0xe9, 0x3e, 0xf7, 0xff, 0x68, 0xbe, 0x70, 0x2a, 0x24, 0xbe,
  0x49, 0xc6, 0x4a, 0xbe, 0xb4, 0xa6, 0xf2, 0x3c, 0x86, 0x40, 0x86, 0x3e,
  0xef, 0x0c, 0x38, 0xbe, 0x35, 0xf7, 0x47, 0xbd, 0x87, 0x56, 0xb6, 0xbe,
  0xe1, 0x31, 0x6e, 0xbe, 0xc3, 0x34, 0x8f, 0xbd, 0x1d, 0x92, 0x22, 0xbd,
  0xe9, 0x50, 0xf5, 0x3c, 0x9c, 0xe0, 0xd4, 0x3e, 0x0a, 0x32, 0x49, 0xbe,
  0xe5, 0xae, 0x2f, 0xbf, 0x89, 0xb7, 0xc5, 0xbe, 0xe8, 0x55, 0x99, 0x3d,
  0xa2, 0xf5, 0x86, 0x39, 0x4c, 0xd9, 0x33, 0x3e, 0xaf, 0xa4, 0x91, 0x3b,
  0xbb, 0xd3, 0x9f, 0xbd, 0x69, 0xe1, 0x2a, 0xbd, 0x91, 0x2d, 0x4e, 0xbf,
  0xc5, 0x31, 0xe3, 0xbe, 0x31, 0x71, 0xcd, 0x3e, 0xd1, 0xbb, 0x2b, 0xbc,
  0x1b, 0x0d, 0x3b, 0x3e, 0x19, 0x4c, 0xd4, 0x3b, 0x10, 0xcf, 0xf1, 0x3d,
  0xc9, 0xec, 0xf0, 0x3d, 0x88, 0x82, 0x72, 0x3d, 0xc4, 0x2d, 0xc6, 0x3d,
  0x4a, 0xf2, 0xf2, 0xbe, 0x99, 0x46, 0x99, 0x3d, 0x07, 0x31, 0x02, 0xbe,
  0x6f, 0x78, 0x29, 0x3d, 0x45, 0xf4, 0xa7, 0xbe, 0x8d, 0x19, 0x85, 0xbd,
  0xbb, 0xf7, 0xbb, 0xbd, 0x04, 0x3f, 0x23, 0xbe, 0xc1, 0x61, 0x1f, 0xbf,
  0xb6, 0xdc, 0xe0, 0x3e, 0x03, 0xb5, 0xed, 0xbe, 0x82, 0x2f, 0x44, 0xbc,
  0xf8, 0xb8, 0x43, 0xbf, 0xda, 0x9e, 0x92, 0x3c, 0x43, 0x18, 0x03, 0xbf,
  0xe7, 0xf6, 0x4b, 0xbe, 0x60, 0xcd, 0x68, 0xbe, 0x8f, 0x4e, 0x58, 0x3d,
  0x38, 0xde, 0x98, 0xbe, 0xa6, 0xa9, 0x7c, 0x3c, 0x16, 0x77, 0xc0, 0xbe,
  0xff, 0xfe, 0xb8, 0xbe, 0x0c, 0xdc, 0x9d, 0xbe, 0xe1, 0xee, 0xdd, 0xbd,
  0x54, 0xca, 0x2a, 0x3e, 0x32, 0x19, 0x44, 0xbe, 0x49, 0x04, 0x96, 0x3e,
  0x15, 0x56, 0x12, 0xbd, 0x02, 0xc8, 0xb3, 0x3e, 0x9c, 0x96, 0xd6, 0xbd,
  0x12, 0x25, 0x16, 0xbd, 0x97, 0x31, 0x5e, 0x3d, 0xd8, 0x43, 0x20, 0x3e,
  0x6e, 0x78, 0x60, 0xbe, 0xc9, 0xbb, 0xc6, 0x3d, 0x47, 0x98, 0x88, 0xbc,
  0x11, 0x8f, 0x06, 0x3e, 0xb9, 0x93, 0x54, 0x3e, 0x6b, 0x6d, 0xf3, 0x3d,
  0xdb, 0x08, 0xa6, 0xbc, 0x06, 0xe8, 0x87, 0x3d, 0x34, 0xfd, 0x0b, 0xbe,
  0x8e, 0x15, 0x7e, 0x3d, 0x70, 0x35, 0x79, 0xbd, 0xd9, 0xa5, 0x8a, 0xbe,
  0x86, 0xc7, 0x7d, 0xbc, 0xcd, 0x7c, 0xc1, 0xbe, 0xb3, 0xea, 0x9b, 0xbd,
  0x4c, 0x3e, 0xaa, 0xbc, 0xfd, 0xec, 0x07, 0xbf, 0xec, 0xe1, 0xc2, 0xbe,
  0x0e, 0x3c, 0x58, 0xbd, 0x2d, 0x8e, 0x1d, 0xbe, 0x0a, 0xa6, 0x1c, 0xbc,
  0x01, 0xef, 0x52, 0xbd, 0x97, 0x93, 0x2d, 0xbe, 0xf5, 0x49, 0x6c, 0xbe,
  0x30, 0xe8, 0x8d, 0xbe, 0x9c, 0x1b, 0x02, 0xbe, 0x06, 0xd7, 0xad, 0xbe,
  0xd4, 0x01, 0xea, 0x3e, 0x21, 0x20, 0xa0, 0x3d, 0xf6, 0x9f, 0xaf, 0xbd,
  0x88, 0xc0, 0x83, 0xbd, 0xc7, 0xed, 0x9c, 0x3e, 0xac, 0xec, 0xb2, 0x3e,
  0x3d, 0xe0, 0xfa, 0x3c, 0x58, 0xc6, 0x9b, 0xbe, 0x32, 0xa0, 0x04, 0x3d,
  0x0f, 0x36, 0x16, 0x3e, 0xe0, 0x90, 0xb1, 0xbd, 0x75, 0xf4, 0x5e, 0xbe,
  0x96, 0x78, 0x8a, 0xbc, 0x37, 0x00, 0x1c, 0xbe, 0x61, 0x3e, 0x87, 0xbd,
  0x74, 0xe4, 0xaa, 0xbe, 0x75, 0xe3, 0xdc, 0x3e, 0x1d, 0x6a, 0x0f, 0x3d,
  0xa3, 0x3f, 0x3a, 0xbe, 0x7b, 0xa3, 0x4c, 0xbe, 0x10, 0x56, 0x8a, 0xbd,
  0xc6, 0xa4, 0x82, 0x3e, 0xef, 0xfb, 0x23, 0x3d, 0xac, 0xc3, 0x8e, 0xbe,
  0xc3, 0xfd, 0x08, 0x3f, 0x3b, 0x8f, 0x9c, 0x3e, 0x2e, 0xfe, 0x1e, 0x3d,
  0x0c, 0xca, 0xfe, 0xbd, 0x1a, 0xf2, 0x12, 0x3e, 0xfb, 0x3b, 0x75, 0x3e,
  0x64, 0x3e, 0x51, 0xbc, 0xa1, 0xd8, 0x80, 0xbd, 0x3e, 0x37, 0xf3, 0xbd,
  0xe7, 0xa7, 0xea, 0xbd, 0x40, 0xd8, 0x5a, 0xbd, 0xe5, 0x21, 0x6f, 0xbd,
  0x28, 0x1f, 0xd7, 0x3d, 0x56, 0xf9, 0xfe, 0x3d, 0x93, 0x55, 0x9b, 0xbd,
  0x61, 0xc1, 0x22, 0xbd, 0xb2, 0x45, 0x06, 0xbd, 0xb8, 0xfa, 0xcf, 0x3d,
  0xfa, 0x0c, 0x5f, 0x3e, 0xb7, 0xd4, 0x89, 0xbd, 0x29, 0x17, 0x60, 0x3d,
  0x81, 0x70, 0x08, 0xbe, 0xb6, 0xe2, 0x30, 0xbe, 0x2b, 0x2b, 0x73, 0xbc,
  0xe1, 0x78, 0x64, 0x3f, 0x2c, 0xd2, 0x35, 0xbe, 0x96, 0x57, 0xc0, 0xbd,
  0x02, 0x19, 0x0f, 0xbe, 0xc5, 0xfa, 0x87, 0xbd, 0xc5, 0x0a, 0x37, 0xbe,
  0x48, 0xe3, 0x11, 0xbe, 0x11, 0xe6, 0x62, 0x3e, 0xa2, 0x2d, 0x4d, 0x3f,
  0xd4, 0x59, 0x35, 0xbe, 0xcc, 0xd4, 0x15, 0xbf, 0x9d, 0x95, 0x5c, 0xbe,
  0x89, 0x7d, 0x7b, 0xbd, 0xd4, 0x8c, 0xa0, 0xbe, 0x7c, 0x1e, 0x49, 0x3e,
  0xcf, 0x12, 0x96, 0xbd, 0x79, 0xe4, 0x61, 0xbe, 0x74, 0xd8, 0xc9, 0x3d,
  0x97, 0x86, 0x9f, 0xbe, 0xfc, 0x3d, 0xc0, 0xbe, 0x9c, 0x62, 0x3e, 0xbe,
  0x64, 0xbb, 0xa8, 0xbe, 0x37, 0x02, 0x1e, 0xbe, 0x83, 0x45, 0xd1, 0xbd,
  0x63, 0x4d, 0x03, 0xbe, 0xa4, 0x58, 0x91, 0x3e, 0x6f, 0x14, 0x67, 0xbe,
  0xf2, 0xea, 0x74, 0xbe, 0x1e, 0x62, 0x13, 0x3f, 0x55, 0x58, 0x50, 0x3e,
  0xfe, 0x13, 0x2a, 0x3d, 0x4d, 0x4b, 0xaf, 0xbd, 0xaa, 0xdd, 0x47, 0x3d,
  0x9b, 0xd3, 0x74, 0xbd, 0xb0, 0xa5, 0x66, 0xbd, 0xc5, 0x24, 0x48, 0xbd,
  0xdf, 0x33, 0xa1, 0xbc, 0x54, 0x56, 0x17, 0x3e, 0xaa, 0xb7, 0x44, 0x3e,
  0xab, 0x2d, 0x0d, 0xbe, 0x09, 0x15, 0x91, 0xbd, 0x30, 0xfb, 0x64, 0xbe,
  0xf2, 0xd3, 0x32, 0x3e, 0xb6, 0x7f, 0xe6, 0x3d, 0xfb, 0x6e, 0x2a, 0x3e,
  0xc2, 0x43, 0xdb, 0x3d, 0x4f, 0x7e, 0x4f, 0x3d, 0xe5, 0x29, 0x72, 0x3d,
  0x58, 0xe2, 0x9e, 0xbd, 0xab, 0x45, 0x01, 0xbf, 0x4e, 0xfb, 0x2f, 0xbe,
  0xfe, 0xc5, 0xae, 0x3d, 0x39, 0x58, 0xaf, 0x3e, 0x7f, 0xb6, 0x8e, 0x3c,
  0xf4, 0xc2, 0xc4, 0x3d, 0x59, 0x06, 0x18, 0xbd, 0xc7, 0x85, 0xe2, 0x3d,
  0x2d, 0xcb, 0x08, 0xbf, 0xa8, 0xc6, 0x43, 0xbe, 0xc7, 0x2f, 0xf0, 0xbd,
  0x8e, 0x17, 0x3a, 0x3e, 0xda, 0x53, 0x80, 0xbe, 0xe7, 0x13, 0x2e, 0x3e,
  0x89, 0x04, 0x2d, 0x3e, 0x1f, 0xd9, 0x21, 0x3e, 0xb4, 0x54, 0xa1, 0xbe,
  0xe4, 0xbe, 0x90, 0xbd, 0x25, 0xce, 0x22, 0xbc, 0xc3, 0xe7, 0x25, 0x3d,
  0x48, 0x9e, 0xa2, 0xbe, 0x5b, 0x64, 0x83, 0xbd, 0x2a, 0x9b, 0x95, 0x3c,
  0xe6, 0xc1, 0xfb, 0xbd, 0x95, 0x0a, 0x4e, 0xbe, 0x38, 0x29, 0x21, 0x3e,
  0x7d, 0xe0, 0xbf, 0x3e, 0x34, 0xb1, 0x5f, 0xbb, 0x5c, 0x29, 0x95, 0xbe,
  0x03, 0x19, 0x3b, 0x3d, 0x95, 0xf0, 0x91, 0x3a, 0x6b, 0x87, 0x27, 0x3f,
  0x80, 0x6b, 0xf0, 0xbd, 0x81, 0x24, 0x90, 0xbe, 0x41, 0x45, 0x9a, 0xbd,
  0x4b, 0xcb, 0x09, 0x3c, 0xbf, 0x0d, 0x74, 0xbd, 0x59, 0xab, 0xf7, 0x3d,
  0xd9, 0x61, 0xf6, 0xbc, 0xd1, 0xd7, 0x9f, 0xbd, 0x3b, 0xad, 0x5c, 0x3e,
  0x8c, 0xf3, 0x82, 0xbe, 0x74, 0x19, 0xa9, 0xbd, 0x6f, 0x7f, 0xfa, 0x3d,
  0x48, 0xfb, 0xb2, 0xbd, 0xc9, 0xd1, 0x4e, 0x3d, 0xbb, 0x94, 0xd4, 0xbd,
  0x33, 0x80, 0x5b, 0xbe, 0x2e, 0xaa, 0x45, 0x3e, 0x74, 0x4e, 0xa2, 0xbd,
  0x90, 0xd8, 0x65, 0xbd, 0x5c, 0xdc, 0x6b, 0x3d, 0xe9, 0x92, 0x27, 0xbd,
  0xdd, 0xf5, 0xfd, 0x3d, 0x25, 0x39, 0xe6, 0xbd, 0xe2, 0xc1, 0x07, 0xbd,
  0x74, 0x19, 0xb7, 0xbd, 0x10, 0x28, 0x23, 0xbd, 0xe1, 0xcc, 0xc0, 0x3a,
  0x1f, 0xc8, 0xd0, 0x3e, 0x4d, 0xf4, 0xcf, 0x3d, 0x92, 0xa3, 0x9e, 0xbd,
  0xae, 0xb3, 0x7f, 0xbd, 0x2a, 0x48, 0xd4, 0x3e, 0x7c, 0x8f, 0xc8, 0x3e,
  0x7c, 0xfb, 0x9d, 0x3e, 0x17, 0x9f, 0x96, 0x3e, 0xb1, 0x60, 0x16, 0xbd,
  0x30, 0x8a, 0x61, 0xbe, 0x3c, 0xed, 0x42, 0x3e, 0x38, 0x73, 0xeb, 0xbd,
  0x4f, 0xfb, 0x29, 0xbd, 0x00, 0x3d, 0x41, 0x3e, 0xc0, 0x76, 0xc9, 0xbe,
  0x61, 0x8a, 0xa5, 0xbd, 0x76, 0xa4, 0x59, 0xbd, 0x65, 0xf9, 0x9a, 0xbd,
  0xf2, 0x50, 0x4c, 0xbd, 0x58, 0x38, 0x14, 0xbe, 0x74, 0xb4, 0xb8, 0xbe,
  0x4a, 0xd9, 0x76, 0xbe, 0xdf, 0xe3, 0x71, 0xbd, 0x1b, 0x6a, 0x26, 0xbe,
  0xea, 0x88, 0x11, 0xbe, 0x1f, 0x46, 0x70, 0x3e, 0xd8, 0xdb, 0xa4, 0xbe,
  0xab, 0x45, 0x12, 0xbe, 0x98, 0xfd, 0x4b, 0xbe, 0x51, 0x3b, 0x1b, 0xbf,
  0x07, 0xbc, 0xa6, 0xbe, 0xc2, 0x3d, 0xb7, 0xbe, 0x15, 0xef, 0x88, 0xbf,
  0xd2, 0x27, 0x82, 0x3e, 0xae, 0xd5, 0x33, 0xbf, 0x17, 0x6a, 0x00, 0xbd,
  0xc5, 0x40, 0xd7, 0xbb, 0xd0, 0xba, 0x7d, 0x3e, 0x59, 0x34, 0x88, 0xbe,
  0xd9, 0x89, 0x6d, 0xbe, 0x77, 0xf6, 0x37, 0x3e, 0x9e, 0x17, 0xc9, 0x3d,
  0x99, 0xcf, 0x03, 0x3c, 0x41, 0x88, 0x78, 0xbc, 0x01, 0xa7, 0xc8, 0xbd,
  0x6c, 0x57, 0xde, 0xbd, 0x3c, 0xdc, 0xd9, 0xbd, 0x7e, 0xfd, 0x03, 0xbf,
  0xc7, 0xae, 0x81, 0x3d, 0x75, 0x1f, 0x1e, 0xbc, 0xd9, 0xbc, 0x17, 0x3d,
  0x44, 0xf5, 0x28, 0xbc, 0xc7, 0xab, 0x8d, 0x3e, 0x80, 0x68, 0x73, 0x3e,
  0x57, 0x04, 0xd4, 0xbe, 0xd8, 0x6e, 0xe9, 0xbe, 0x63, 0xca, 0xf2, 0xbc,
  0x81, 0x22, 0x85, 0x3e, 0xd7, 0x12, 0x1c, 0xbe, 0x32, 0x86, 0x40, 0xbb,
  0x55, 0x67, 0x84, 0x3e, 0x86, 0xc9, 0x22, 0x3e, 0xa4, 0xab, 0x33, 0x3d,
  0xc8, 0xb9, 0xe4, 0xbe, 0xa3, 0xb5, 0xc8, 0xbb, 0x1f, 0x31, 0x8e, 0xbe,
  0xc8, 0xa1, 0x61, 0x3e, 0x98, 0x97, 0x03, 0xbd, 0xed, 0xd8, 0xc8, 0xbb,
  0x6a, 0x38, 0xe9, 0x3d, 0x5e, 0x0f, 0x11, 0xbe, 0xff, 0x45, 0x0b, 0xbd,
  0xc0, 0xd1, 0x08, 0x3f, 0x26, 0xc4, 0x66, 0xbd, 0xc7, 0x52, 0xa5, 0x3d,
  0x34, 0x29, 0x5f, 0xbd, 0x8c, 0x0c, 0xc8, 0xbe, 0x47, 0x6c, 0x41, 0x3e,
  0x9f, 0xf1, 0x9b, 0xbd, 0x60, 0x08, 0x56, 0x3d, 0x6c, 0x6c, 0x28, 0x3a,
  0xac, 0xb0, 0x14, 0xbd, 0x5b, 0x78, 0xc8, 0x3c, 0x47, 0xba, 0xbf, 0xbd,
  0xc8, 0x1d, 0xbc, 0xbe, 0xe4, 0xc4, 0x58, 0x3d, 0xcf, 0x14, 0xca, 0x3d,
  0x79, 0x8f, 0x5a, 0xbd, 0xf1, 0x7d, 0x2c, 0xbe, 0xdd, 0x9a, 0x3e, 0xbd,
  0xe3, 0xc2, 0x1d, 0x3e, 0x94, 0x9d, 0xcf, 0xbd, 0xe2, 0x48, 0xa2, 0x3d,
  0xb7, 0xc7, 0x97, 0x3d, 0xbe, 0xf0, 0x80, 0x3d, 0x03, 0x4c, 0x8e, 0x3c,
  0x0d, 0xcf, 0x0a, 0x3e, 0xaf, 0x6f, 0xd1, 0xbd, 0x05, 0x84, 0x44, 0x3d,
  0xc6, 0xde, 0xff, 0xff, 0x10, 0x00, 0x00, 0x00, 0x08, 0x00, 0x00, 0x00,
  0x1c, 0x00, 0x00, 0x00, 0x38, 0x00, 0x00, 0x00, 0x04, 0x00, 0x00, 0x00,
  0x10, 0x00, 0x00, 0x00, 0x04, 0x00, 0x00, 0x00, 0x01, 0x00, 0x00, 0x00,
  0x08, 0x00, 0x00, 0x00, 0x1a, 0x00, 0x00, 0x00, 0x73, 0x65, 0x71, 0x75,
  0x65, 0x6e, 0x74, 0x69, 0x61, 0x6c, 0x2f, 0x63, 0x6f, 0x6e, 0x76, 0x32,
  0x64, 0x5f, 0x31, 0x2f, 0x43, 0x6f, 0x6e, 0x76, 0x32, 0x44, 0x00, 0x00,
  0xc0, 0xde, 0xff, 0xff, 0xb6, 0xdf, 0xff, 0xff, 0x04, 0x00, 0x00, 0x00,
  0x80, 0x01, 0x00, 0x00, 0x0b, 0x19, 0x28, 0xbd, 0xec, 0xad, 0x4a, 0xbd,
  0x44, 0x60, 0xd5, 0x3b, 0xb9, 0x94, 0xe9, 0xbb, 0xcb, 0x0d, 0x82, 0xbd,
  0x75, 0x03, 0xb6, 0x3b, 0x8e, 0x3d, 0xbe, 0x3d, 0x41, 0x7e, 0xce, 0x3c,
  0x00, 0xef, 0x1b, 0x3d, 0x33, 0xd0, 0x08, 0x3e, 0x49, 0x32, 0x9f, 0x3b,
  0x43, 0x37, 0x0c, 0x3e, 0xec, 0x4b, 0x1f, 0xbe, 0xf3, 0x35, 0xe7, 0xbe,
  0x68, 0xa0, 0xa6, 0xbd, 0x2e, 0xed, 0xa9, 0xbe, 0xc6, 0xb6, 0x8c, 0xbe,
  0xda, 0xc0, 0x3b, 0xbe, 0xab, 0x0b, 0xdc, 0xbe, 0xf9, 0xb0, 0x65, 0x3e,
  0xf5, 0xfd, 0x5f, 0xbd, 0xa5, 0x0a, 0xd7, 0xbe, 0xce, 0x71, 0x9f, 0x3e,
  0x62, 0xb8, 0xe4, 0xbd, 0xa2, 0xca, 0xbd, 0x3e, 0x44, 0x6f, 0xaa, 0xbe,
  0x1e, 0x0c, 0xb6, 0x3d, 0xdd, 0xcb, 0x88, 0x3e, 0xa7, 0x11, 0x14, 0xbe,
  0xa9, 0x31, 0x83, 0xbd, 0x28, 0x33, 0x14, 0x3e, 0x37, 0x40, 0xad, 0xbe,
  0x2c, 0xbc, 0x72, 0xb9, 0x20, 0x08, 0xb9, 0x3c, 0x34, 0xd5, 0xa7, 0xbd,
  0xdf, 0x0e, 0x0a, 0xbe, 0xdb, 0xfe, 0x15, 0xbe, 0xb6, 0x55, 0xb4, 0x3a,
  0x97, 0x44, 0x3c, 0x3c, 0x29, 0x8d, 0xdf, 0xbc, 0xde, 0x9a, 0xb2, 0xbe,
  0x6b, 0x1b, 0x15, 0xbe, 0x03, 0x9f, 0x41, 0xbe, 0xb8, 0x31, 0xbd, 0xbe,
  0x56, 0xfb, 0x81, 0xbd, 0x51, 0x65, 0x78, 0xbd, 0xac, 0x3f, 0x8a, 0xbe,
  0xcc, 0x60, 0xba, 0x3d, 0xfb, 0x5e, 0x80, 0xbe, 0xcb, 0x49, 0x42, 0x3d,
  0xd3, 0x7e, 0x8d, 0x3d, 0x7f, 0x6e, 0xed, 0xbe, 0x86, 0x83, 0x3d, 0xbe,
  0x71, 0x5d, 0xd1, 0x3d, 0xe7, 0xa5, 0xf5, 0xbe, 0x0b, 0x7a, 0xed, 0xbc,
  0x15, 0xaa, 0x58, 0xba, 0xd2, 0x70, 0x97, 0xbe, 0x19, 0x7b, 0x04, 0xbe,
  0x77, 0x7c, 0xae, 0xbd, 0x40, 0x80, 0x4e, 0xbe, 0x60, 0x65, 0xe8, 0x3d,
  0x33, 0xce, 0xf7, 0xbe, 0xc9, 0x0c, 0xd7, 0xbe, 0x9a, 0x67, 0x26, 0x3e,
  0xec, 0xdf, 0xae, 0xbe, 0xc4, 0xb8, 0xc8, 0xbe, 0x8e, 0xe1, 0x1f, 0xbe,
  0x1e, 0x02, 0x06, 0xbd, 0x4c, 0x37, 0x44, 0xbd, 0x14, 0xd6, 0x42, 0xbe,
  0x73, 0x3e, 0x4e, 0xbe, 0xc5, 0xa7, 0x8d, 0x3e, 0xd7, 0x0e, 0xb3, 0x3d,
  0x64, 0xbb, 0x6b, 0xbe, 0x67, 0xf2, 0xe2, 0x3e, 0x0e, 0xe6, 0x24, 0x3c,
  0x26, 0x29, 0x26, 0xbe, 0x65, 0x77, 0xf4, 0x3e, 0x08, 0x2e, 0x8e, 0xbe,
  0xf5, 0xf6, 0x80, 0x3d, 0x15, 0x14, 0x29, 0x3f, 0x5f, 0x89, 0xfa, 0x3d,
  0x64, 0xe9, 0x99, 0xbd, 0xac, 0x3f, 0x9f, 0xbe, 0xc0, 0x3b, 0x2b, 0x3d,
  0xac, 0x51, 0x9d, 0xbe, 0xf2, 0xcd, 0xb3, 0xbc, 0x8c, 0x07, 0x71, 0x3d,
  0xec, 0x86, 0x60, 0xbe, 0x8a, 0xbf, 0x95, 0xbe, 0xc9, 0xdc, 0xe6, 0x3c,
  0xa9, 0x54, 0x41, 0xbd, 0xd1, 0x43, 0x82, 0xbd, 0x62, 0x5a, 0x0f, 0xbe,
  0xd6, 0xa2, 0x5c, 0xbe, 0x9e, 0xe0, 0xff, 0xff, 0x10, 0x00, 0x00, 0x00,
  0x07, 0x00, 0x00, 0x00, 0x1c, 0x00, 0x00, 0x00, 0x38, 0x00, 0x00, 0x00,
  0x04, 0x00, 0x00, 0x00, 0x08, 0x00, 0x00, 0x00, 0x04, 0x00, 0x00, 0x00,
  0x03, 0x00, 0x00, 0x00, 0x01, 0x00, 0x00, 0x00, 0x18, 0x00, 0x00, 0x00,
  0x73, 0x65, 0x71, 0x75, 0x65, 0x6e, 0x74, 0x69, 0x61, 0x6c, 0x2f, 0x63,
  0x6f, 0x6e, 0x76, 0x32, 0x64, 0x2f, 0x43, 0x6f, 0x6e, 0x76, 0x32, 0x44,
  0x00, 0x00, 0x00, 0x00, 0x98, 0xe0, 0xff, 0xff, 0x8e, 0xe1, 0xff, 0xff,
  0x04, 0x00, 0x00, 0x00, 0x00, 0x01, 0x00, 0x00, 0xf9, 0xd7, 0xb2, 0x3e,
  0x4d, 0x8a, 0x20, 0x3f, 0x0e, 0x37, 0x88, 0x3e, 0xcd, 0xfa, 0xda, 0x3d,
  0xd9, 0xfb, 0x65, 0xbe, 0x24, 0x43, 0xf0, 0x3d, 0xd5, 0x86, 0x7b, 0x3b,
  0x5c, 0x6e, 0x82, 0x3b, 0x62, 0xe5, 0x08, 0x3c, 0x17, 0x8c, 0x12, 0xbe,
  0xbf, 0xc2, 0x8f, 0x3e, 0x7c, 0xe5, 0x88, 0xbe, 0x96, 0xe8, 0x96, 0xbe,
  0xc6, 0x46, 0x81, 0xbe, 0xa0, 0x45, 0x2f, 0x3f, 0x48, 0x03, 0x9f, 0xbe,
  0x7e, 0xac, 0x7d, 0x3e, 0xdb, 0xd9, 0x05, 0x3e, 0xe4, 0x69, 0x9d, 0xbe,
  0x1a, 0x16, 0xc2, 0x3d, 0xad, 0xec, 0x99, 0xbd, 0xb5, 0x43, 0x8a, 0xbd,
  0x04, 0xd8, 0x43, 0x3d, 0x0b, 0x46, 0x38, 0x3d, 0x56, 0xa2, 0xf3, 0x3d,
  0x15, 0xdc, 0x4f, 0xbe, 0x40, 0x15, 0x15, 0x3d, 0x66, 0x1b, 0xbe, 0x3d,
  0xa4, 0x9c, 0x5b, 0xbe, 0xd4, 0xa1, 0x4d, 0xbe, 0x18, 0xfc, 0x36, 0xbf,
  0x5c, 0x4a, 0x6d, 0x3e, 0x4d, 0x2e, 0xec, 0x3d, 0x00, 0xf8, 0x7e, 0xbf,
  0xe6, 0x9a, 0xeb, 0xbe, 0xb4, 0xf5, 0x03, 0x3c, 0xa1, 0x44, 0x25, 0x3b,
  0xca, 0x99, 0xa7, 0xbe, 0x4c, 0xff, 0xf7, 0xbc, 0x44, 0x25, 0xd1, 0xbd,
  0x18, 0x7c, 0x64, 0x3c, 0x5b, 0x38, 0xf9, 0x3d, 0x6b, 0x7a, 0x94, 0x3e,
  0xa3, 0x66, 0x88, 0xbd, 0xd6, 0x03, 0x63, 0xbe, 0x34, 0x34, 0xce, 0xbe,
  0xf1, 0xc1, 0x2b, 0xbf, 0xd8, 0xc3, 0x7e, 0x3c, 0x3b, 0x37, 0x5d, 0xbe,
  0x82, 0xa7, 0x08, 0xbe, 0xf6, 0xb3, 0xee, 0xbd, 0x88, 0x3f, 0x12, 0xbd,
  0x50, 0xff, 0x06, 0x3e, 0x54, 0x02, 0x95, 0x3e, 0x78, 0x10, 0xfb, 0x3d,
  0x6f, 0x35, 0xc4, 0x3d, 0xee, 0xc1, 0x5e, 0x3d, 0x64, 0xf5, 0x8c, 0xbe,
  0xcb, 0x25, 0xa8, 0x3e, 0xc2, 0x67, 0x19, 0xbe, 0x48, 0x79, 0xa0, 0xbe,
  0xef, 0x90, 0x10, 0xbe, 0xaf, 0x6e, 0x0b, 0x3e, 0x66, 0xea, 0x64, 0x3e,
  0xf6, 0xe1, 0xff, 0xff, 0x10, 0x00, 0x00, 0x00, 0x06, 0x00, 0x00, 0x00,
  0x14, 0x00, 0x00, 0x00, 0x30, 0x00, 0x00, 0x00, 0x02, 0x00, 0x00, 0x00,
  0x04, 0x00, 0x00, 0x00, 0x10, 0x00, 0x00, 0x00, 0x19, 0x00, 0x00, 0x00,
  0x73, 0x65, 0x71, 0x75, 0x65, 0x6e, 0x74, 0x69, 0x61, 0x6c, 0x2f, 0x64,
  0x65, 0x6e, 0x73, 0x65, 0x5f, 0x31, 0x2f, 0x4d, 0x61, 0x74, 0x4d, 0x75,
  0x6c, 0x00, 0x00, 0x00, 0xe8, 0xe1, 0xff, 0xff, 0xde, 0xe2, 0xff, 0xff,
  0x04, 0x00, 0x00, 0x00, 0x00, 0x1c, 0x00, 0x00, 0x00, 0x88, 0x72, 0xbe,
  0x75, 0xd4, 0x16, 0xbe, 0x04, 0x7b, 0x77, 0xbd, 0xbb, 0xf6, 0x31, 0xbe,
  0x89, 0xa6, 0x83, 0x3d, 0x22, 0x9e, 0x47, 0xbe, 0x54, 0x59, 0x5a, 0xbe,
  0x2f, 0x17, 0xcc, 0xbc, 0xd7, 0x1c, 0x02, 0xbd, 0x36, 0x0d, 0xe6, 0x3d,
  0x10, 0x8b, 0xda, 0xbc, 0x82, 0x87, 0x22, 0xbd, 0xa6, 0xee, 0x9c, 0xbd,
  0xc2, 0x86, 0x23, 0xbc, 0x09, 0x3c, 0xad, 0xbd, 0x0d, 0xfa, 0x4e, 0xbe,
  0x00, 0x25, 0x30, 0xbd, 0x07, 0x3f, 0x89, 0xbe, 0x07, 0xb2, 0x17, 0xbe,
  0xd9, 0x56, 0x3a, 0xbe, 0xeb, 0xb0, 0x28, 0xbe, 0x82, 0xbf, 0x00, 0xbc,
  0x99, 0x2a, 0x8a, 0xbd, 0x9c, 0x7f, 0x3e, 0xbb, 0x20, 0x6f, 0x53, 0x3d,
  0x3b, 0xca, 0xea, 0x3d, 0x26, 0xcb, 0xc2, 0xbc, 0x3c, 0x86, 0xca, 0xbc,
  0x93, 0xee, 0xfb, 0xbd, 0x32, 0xc7, 0xac, 0x3d, 0x45, 0xb2, 0x46, 0x3e,
  0x9e, 0xcc, 0xf7, 0x3c, 0xcb, 0x7c, 0x5e, 0xbe, 0x3e, 0x01, 0x5e, 0xbe,
  0x42, 0x40, 0x04, 0xbe, 0x1b, 0xde, 0x5a, 0xbe, 0x26, 0xdf, 0x64, 0xbe,
  0x5c, 0xb9, 0xaf, 0x3c, 0xc0, 0x83, 0x0a, 0xbe, 0xec, 0xbb, 0x64, 0xbc,
  0xbc, 0x3a, 0x52, 0xbc, 0xe8, 0x19, 0x19, 0xbe, 0xe1, 0x34, 0x4a, 0xbe,
  0xcc, 0x80, 0x5c, 0xbe, 0x3d, 0x9a, 0x6f, 0x3d, 0x36, 0x8a, 0x9d, 0xbd,
  0x94, 0xc1, 0x7c, 0xbe, 0xb4, 0x98, 0x11, 0xbd, 0x47, 0x1f, 0x97, 0x3c,
  0xc4, 0x69, 0x67, 0xbe, 0x68, 0xab, 0x0d, 0xbd, 0xa9, 0xda, 0x46, 0xbe,
  0x70, 0x68, 0xae, 0x3d, 0xe7, 0x99, 0x4f, 0x3c, 0x05, 0x1f, 0xd9, 0xbc,
  0x3a, 0x26, 0xa9, 0x3c, 0xfb, 0xc2, 0x91, 0xbe, 0x25, 0xcb, 0xf4, 0x3d,
  0xf4, 0x57, 0x08, 0x3e, 0xac, 0x02, 0x28, 0x3e, 0x4d, 0x6d, 0x0d, 0xbe,
  0xe0, 0x98, 0x61, 0xbd, 0xa5, 0x0e, 0x6a, 0xbd, 0x00, 0x41, 0xc5, 0xbd,
  0x81, 0xcc, 0xaa, 0x3c, 0x7d, 0x4d, 0x2f, 0xbd, 0x8d, 0x91, 0xa7, 0xbc,
  0x96, 0xdc, 0x2c, 0xbe, 0x67, 0xc9, 0xf4, 0xbd, 0xe1, 0xfb, 0x38, 0xbe,
  0x06, 0xc9, 0x53, 0xbe, 0x8f, 0x0c, 0x1a, 0xbe, 0x6c, 0x43, 0x99, 0xbe,
  0xbc, 0x81, 0xcc, 0x3d, 0x23, 0xa4, 0x1f, 0xbe, 0x2d, 0xb8, 0xf6, 0x3d,
  0x24, 0xdb, 0xe8, 0x3d, 0xd4, 0x78, 0x76, 0xbd, 0x90, 0xb9, 0x49, 0xbd,
  0x3f, 0xb4, 0x40, 0xbe, 0x58, 0x34, 0xa3, 0x3d, 0x2d, 0x0c, 0x07, 0xbd,
  0x99, 0x9c, 0x2e, 0x3d, 0x7a, 0xdd, 0xdc, 0x3c, 0x19, 0xee, 0xfc, 0x3d,
  0xd4, 0x29, 0x15, 0xbe, 0xde, 0x7c, 0x09, 0x3e, 0x75, 0xbb, 0xdb, 0xbd,
  0xb6, 0x84, 0x4f, 0x3d, 0x53, 0x99, 0x80, 0xbb, 0x27, 0xa3, 0x6d, 0xbe,
  0x19, 0x1c, 0xb6, 0x3c, 0x56, 0x39, 0x04, 0xbe, 0xf0, 0xeb, 0x17, 0xbd,
  0xcd, 0x60, 0xd7, 0x3d, 0xa2, 0xbb, 0x0b, 0xbd, 0xf6, 0xa0, 0x3e, 0x3d,
  0x4a, 0xe2, 0x35, 0xbe, 0x68, 0x87, 0x68, 0xbe, 0xf5, 0xdf, 0xa4, 0xbd,
  0xd6, 0xa5, 0xb1, 0xbd, 0xa7, 0xd1, 0x9e, 0xbd, 0x53, 0x4f, 0x6f, 0xbe,
  0x6c, 0xec, 0xb5, 0xbd, 0x66, 0xe0, 0xcc, 0xbb, 0xed, 0xce, 0x41, 0xbe,
  0x9b, 0x3b, 0xa8, 0xbd, 0x4d, 0xc5, 0x64, 0xbe, 0x66, 0x03, 0x3a, 0xbd,
  0xcb, 0xc5, 0x23, 0xbd, 0x14, 0xdc, 0x93, 0x3d, 0xb4, 0xd9, 0x27, 0xbe,
  0x1d, 0x39, 0x62, 0xbb, 0x5d, 0xbb, 0xba, 0xbe, 0xa6, 0x22, 0xf5, 0x3d,
  0xf2, 0x7d, 0xe0, 0xbd, 0xf2, 0x76, 0x2d, 0x3d, 0xc5, 0x39, 0x87, 0xbe,
  0xc2, 0xbd, 0xc3, 0xbd, 0xda, 0xf5, 0x69, 0x3f, 0x3a, 0xac, 0x42, 0xbe,
  0xfb, 0x39, 0xf7, 0xbb, 0x0e, 0x37, 0x74, 0xbe, 0x29, 0x32, 0xd6, 0xbd,
  0x83, 0x79, 0x09, 0xbe, 0xee, 0x0e, 0x89, 0xbd, 0xd5, 0x45, 0x6a, 0xbd,
  0x8e, 0xca, 0x1a, 0xbe, 0xa3, 0x7f, 0xc5, 0x3c, 0x51, 0x81, 0x14, 0xbe,
  0x9c, 0xb6, 0xd2, 0x3c, 0x54, 0x2f, 0x7c, 0xbe, 0x56, 0x42, 0x91, 0xbe,
  0xe6, 0xc3, 0x77, 0xbd, 0x08, 0xa1, 0x7d, 0xbe, 0x22, 0x3f, 0x7c, 0x3f,
  0x33, 0x2f, 0xde, 0xbc, 0x09, 0xae, 0xf4, 0x3c, 0x2a, 0xba, 0x9d, 0xbd,
  0xe0, 0xf3, 0xb6, 0x3c, 0xb7, 0xdc, 0x7d, 0xbc, 0x66, 0x39, 0x28, 0x3e,
  0x8f, 0xb2, 0xd4, 0xbd, 0xe3, 0x73, 0x97, 0xbe, 0x3f, 0x48, 0x7e, 0x3d,
  0xc0, 0x47, 0x13, 0xbe, 0x67, 0xf0, 0xb0, 0xbd, 0xc2, 0x24, 0x01, 0x3e,
  0x43, 0xc5, 0x77, 0xbe, 0x3a, 0x5f, 0x5e, 0xbe, 0x0e, 0x9a, 0xa7, 0xbd,
  0x52, 0x0a, 0x84, 0x3f, 0xab, 0x77, 0x5c, 0xbe, 0xda, 0x84, 0x5f, 0xbe,
  0xbf, 0x39, 0x67, 0xbe, 0x66, 0xf0, 0xb7, 0x3d, 0xd0, 0x56, 0x52, 0xbb,
  0xc9, 0xd6, 0x06, 0x3e, 0x70, 0x56, 0x61, 0x3d, 0xea, 0xd5, 0xb3, 0xbe,
  0xaf, 0x65, 0xb0, 0x3d, 0x5e, 0x7b, 0xb3, 0xbe, 0xf2, 0x87, 0x3a, 0xbe,
  0x4c, 0xfe, 0x12, 0xbe, 0xd8, 0x01, 0x9f, 0xbc, 0xa2, 0x8c, 0x82, 0xbc,
  0x94, 0xde, 0x9f, 0xbd, 0xa1, 0xec, 0x8b, 0x3f, 0x7f, 0x15, 0x1e, 0xbe,
  0x04, 0x92, 0x5c, 0xbe, 0xc6, 0x77, 0x36, 0xbe, 0x18, 0xb6, 0x59, 0xbe,
  0x94, 0xed, 0x48, 0xbe, 0x3b, 0x39, 0x1f, 0xbe, 0x1d, 0x22, 0xd3, 0x3c,
  0x13, 0x7a, 0x7c, 0xbe, 0x43, 0x70, 0x32, 0xbe, 0x3b, 0x90, 0xc4, 0xbd,
  0x35, 0xee, 0x3e, 0xbe, 0x83, 0x6d, 0x1c, 0xbd, 0xee, 0x52, 0x9f, 0xba,
  0x78, 0xa6, 0x18, 0xbe, 0x68, 0x79, 0xeb, 0x3b, 0xfa, 0x84, 0x89, 0x3f,
  0xe3, 0xf6, 0x9e, 0xbd, 0x83, 0x42, 0xe3, 0xbc, 0xd1, 0xa0, 0xbc, 0xbd,
  0x8e, 0xb1, 0x57, 0xbe, 0xcb, 0xb6, 0xbe, 0xbd, 0x78, 0x22, 0x11, 0xbe,
  0xdd, 0xff, 0x46, 0xbe, 0x5a, 0x21, 0xc7, 0xbd, 0x5c, 0xe8, 0x0f, 0x3d,
  0xbc, 0xb0, 0x99, 0xbe, 0xa7, 0x9f, 0x94, 0xbd, 0x39, 0x90, 0x98, 0x3d,
  0x95, 0x6d, 0x43, 0xbe, 0x26, 0x0b, 0x09, 0xbe, 0x67, 0xf9, 0x40, 0xbe,
  0x0a, 0x53, 0x92, 0x3f, 0xaf, 0x78, 0xcb, 0xbd, 0x37, 0xfe, 0x93, 0xbe,
  0xde, 0x29, 0xc2, 0xbd, 0x59, 0x97, 0x3e, 0xbe, 0xfa, 0x98, 0x00, 0x3d,
  0x94, 0x65, 0x84, 0xbd, 0xbb, 0x8a, 0x29, 0x3d, 0xea, 0xb8, 0x13, 0xbe,
  0x98, 0x4c, 0x2b, 0x3d, 0x55, 0x98, 0x9d, 0xbe, 0x07, 0x18, 0x42, 0xbe,
  0x91, 0xa9, 0xee, 0x3c, 0xd8, 0x99, 0x8b, 0x3c, 0x57, 0xc8, 0x8f, 0xbe,
  0xe4, 0xd2, 0xab, 0xbd, 0xce, 0x24, 0x90, 0x3e, 0x46, 0xcd, 0xe0, 0x3d,
  0x87, 0x4e, 0xa1, 0xbd, 0x90, 0xd3, 0xb6, 0xbe, 0x90, 0xfc, 0x2f, 0xbe,
  0xaa, 0x80, 0xdc, 0xbc, 0x43, 0xd1, 0x98, 0xbe, 0x37, 0x23, 0x57, 0xbe,
  0x8f, 0x2c, 0x6d, 0xbc, 0x14, 0xc4, 0x03, 0x3c, 0xc1, 0x6b, 0x84, 0xbe,
  0x53, 0x93, 0x99, 0x3c, 0xce, 0xcb, 0x8d, 0x3c, 0xfe, 0x37, 0x08, 0xbe,
  0x33, 0x82, 0x3b, 0xbe, 0xb0, 0x71, 0xa4, 0xbd, 0xc9, 0x01, 0x6f, 0xbe,
  0x77, 0xe9, 0x86, 0xbd, 0xbe, 0x11, 0x9d, 0x3d, 0xb1, 0x7a, 0x04, 0xbb,
  0xd1, 0xef, 0xfd, 0x3d, 0x0a, 0x39, 0x16, 0xbe, 0xd7, 0xbe, 0x86, 0xbe,
  0x06, 0x9f, 0x1e, 0xbe, 0x66, 0xb9, 0xae, 0xbc, 0x12, 0xc3, 0x8f, 0xbe,
  0xd7, 0x1f, 0x23, 0xbe, 0xb6, 0xe2, 0x9a, 0xbd, 0x2e, 0x96, 0x5c, 0xbc,
  0x86, 0xa6, 0xae, 0x3c, 0x33, 0xa0, 0xab, 0xbd, 0x17, 0x4c, 0x3d, 0xbe,
  0x78, 0x4f, 0xf7, 0x3c, 0x8d, 0x25, 0x76, 0x3d, 0xfc, 0x8f, 0x8c, 0x3d,
  0x5b, 0x09, 0x55, 0xbd, 0xed, 0xc7, 0xb3, 0x3d, 0x7c, 0xb3, 0x08, 0x3d,
  0xfd, 0x1d, 0x40, 0xbe, 0x96, 0x22, 0x49, 0x3d, 0x6b, 0x71, 0x17, 0x3d,
  0x87, 0x23, 0x2a, 0x3d, 0x32, 0x0b, 0xae, 0xbc, 0x47, 0x93, 0x1a, 0xbd,
  0x3d, 0x6f, 0x17, 0xbe, 0x58, 0xc6, 0xa7, 0xbd, 0x00, 0xdf, 0x00, 0xbe,
  0xca, 0x75, 0xd3, 0x3c, 0x26, 0x4f, 0x4a, 0xbe, 0x56, 0xec, 0x78, 0xbe,
  0x70, 0x81, 0x1c, 0x3e, 0xc3, 0x1c, 0x8c, 0xbe, 0x6d, 0x36, 0x6a, 0x3d,
  0xc2, 0xb6, 0xd8, 0xbd, 0x49, 0x0f, 0xba, 0xbc, 0xe0, 0xae, 0xf8, 0x3d,
  0xfe, 0xb5, 0x43, 0xbe, 0x4a, 0x2d, 0x4d, 0x3d, 0xf9, 0xdb, 0x22, 0xbe,
  0x8f, 0x04, 0x82, 0xbe, 0x38, 0xc3, 0x5f, 0x3c, 0xf2, 0x21, 0x30, 0x3e,
  0xdf, 0xca, 0x84, 0xbd, 0x9e, 0x81, 0x90, 0x3c, 0x2e, 0x2d, 0x85, 0x3d,
  0xd9, 0x20, 0xd3, 0xbd, 0xf3, 0xb3, 0x19, 0xbe, 0x25, 0xcb, 0x31, 0x3d,
  0x7b, 0x90, 0xd7, 0xbd, 0x51, 0x1a, 0x56, 0x3c, 0x04, 0xaf, 0xb7, 0x3c,
  0xb6, 0x00, 0x4b, 0x3d, 0xfd, 0x63, 0xb9, 0x3d, 0x4e, 0x97, 0x18, 0xbd,
  0x9a, 0xdc, 0x56, 0xbe, 0xaa, 0x00, 0x1e, 0xbe, 0x58, 0xbf, 0x37, 0xbe,
  0x7d, 0x87, 0x8a, 0xbe, 0xa3, 0xc9, 0x46, 0xbe, 0x5d, 0x0a, 0x81, 0xbe,
  0x32, 0x6d, 0x0d, 0xbe, 0xa4, 0x4b, 0x09, 0xbe, 0x7d, 0xd0, 0x0b, 0xbe,
  0x76, 0x57, 0x4f, 0xbc, 0xf6, 0x54, 0x2a, 0xbb, 0x7a, 0xa5, 0xe9, 0xbc,
  0x0c, 0x38, 0x0f, 0xbc, 0x1e, 0x38, 0x5a, 0x3c, 0x8b, 0xe4, 0xc7, 0x3d,
  0x1e, 0x78, 0xdf, 0x3c, 0xb6, 0x4b, 0x4d, 0xbd, 0x01, 0xf8, 0x35, 0xbd,
  0x78, 0x34, 0xac, 0xbd, 0x4f, 0xcd, 0x38, 0xbe, 0xa8, 0x61, 0x83, 0xbc,
  0x71, 0x7d, 0xdf, 0x3a, 0x95, 0xa8, 0xc5, 0xbd, 0xd5, 0x2a, 0x97, 0xbc,
  0x6b, 0x55, 0xa7, 0x3d, 0x29, 0xfd, 0x5c, 0xbe, 0x46, 0xac, 0xfe, 0x3b,
  0x9c, 0xb6, 0x63, 0xbe, 0xbc, 0x11, 0x6f, 0x3d, 0x0b, 0x71, 0xd3, 0x3d,
  0xb9, 0x20, 0x54, 0xbe, 0x10, 0x00, 0x93, 0xbe, 0xb0, 0x5b, 0x21, 0xbe,
  0xd4, 0xad, 0x16, 0x3e, 0x99, 0xa9, 0x14, 0xbb, 0x64, 0xfe, 0x0e, 0xbe,
  0x6e, 0xec, 0x2c, 0xbe, 0xf2, 0x48, 0x87, 0xbd, 0xce, 0x17, 0x53, 0xba,
  0x05, 0x0e, 0x23, 0xbe, 0x80, 0x49, 0x3a, 0xbe, 0xb5, 0x26, 0x8c, 0xbe,
  0x21, 0xfc, 0x92, 0xbb, 0x6f, 0x22, 0x16, 0xbe, 0x42, 0xb3, 0x63, 0xbd,
  0xb6, 0x05, 0x3a, 0x3c, 0x8d, 0x4b, 0x87, 0xbe, 0x82, 0x5c, 0x41, 0xbd,
  0x08, 0x0e, 0xd5, 0xbc, 0x97, 0x8e, 0x47, 0x3b, 0x26, 0x89, 0x72, 0x3e,
  0x20, 0x4f, 0x87, 0x3c, 0x41, 0xd4, 0x4c, 0x3c, 0x41, 0x76, 0xb2, 0xbe,
  0xce, 0x98, 0x32, 0x3c, 0x88, 0x0e, 0xda, 0xbd, 0x48, 0xfb, 0x07, 0x3e,
  0xfb, 0x9c, 0xa7, 0xbe, 0xd9, 0xba, 0x10, 0xbc, 0xa7, 0x31, 0x95, 0xbd,
  0x66, 0x0e, 0x7b, 0xbd, 0x42, 0x9a, 0x75, 0xbe, 0x71, 0x40, 0x00, 0x3d,
  0x63, 0x1e, 0xb6, 0xbc, 0xf1, 0x6f, 0xcb, 0xbc, 0x36, 0xc3, 0x6c, 0x3d,
  0x51, 0x3a, 0x17, 0x3e, 0x6f, 0xec, 0xa6, 0xbd, 0x28, 0xff, 0x97, 0x3e,
  0x90, 0x35, 0x13, 0xbe, 0xca, 0x0b, 0x86, 0x3d, 0x0e, 0x34, 0x2a, 0xbd,
  0x2b, 0x72, 0x8a, 0x3d, 0x4c, 0x51, 0x1d, 0xbe, 0x49, 0x36, 0xa7, 0xbd,
  0x25, 0x7c, 0x29, 0x3d, 0x21, 0x1e, 0xd0, 0x3e, 0x36, 0xab, 0x3a, 0xbd,
  0x31, 0xfa, 0x07, 0x3d, 0x3a, 0xd3, 0x93, 0x3b, 0xec, 0x26, 0x1e, 0xbd,
  0x7c, 0xab, 0x80, 0xbd, 0xff, 0xcb, 0x09, 0x3e, 0x61, 0x93, 0x7b, 0xbe,
  0xf3, 0x78, 0x65, 0x3e, 0x7e, 0x72, 0x95, 0x3c, 0x7c, 0x77, 0x41, 0x3e,
  0x59, 0xe4, 0x54, 0xbd, 0x41, 0x55, 0x58, 0xbd, 0x42, 0xbe, 0x53, 0xbc,
  0x8e, 0x99, 0xae, 0x3c, 0xd0, 0x4a, 0xbf, 0xbd, 0xe7, 0x17, 0x07, 0x3f,
  0x44, 0xde, 0xb8, 0x3d, 0x58, 0x9a, 0x4a, 0x3d, 0xd4, 0x69, 0x99, 0x3c,
  0xc9, 0x63, 0x66, 0xbd, 0x64, 0xd8, 0xc2, 0x3c, 0xc7, 0x47, 0x00, 0x3e,
  0x6f, 0x3b, 0x4f, 0xbe, 0x26, 0x65, 0x07, 0x3e, 0xaa, 0xab, 0x66, 0xbc,
  0x91, 0x55, 0xa4, 0xbe, 0x53, 0x2b, 0x7d, 0xbd, 0x2a, 0xe8, 0x23, 0xbe,
  0x93, 0x8c, 0x0c, 0xbe, 0xb2, 0xd2, 0xea, 0x3c, 0xe0, 0x42, 0xc6, 0x38,
  0x49, 0xc8, 0xc8, 0x3e, 0x45, 0xf8, 0x0e, 0x3e, 0xa8, 0xa7, 0x29, 0x3d,
  0x89, 0x3b, 0x2a, 0xbd, 0x87, 0x93, 0x0c, 0xbd, 0xb7, 0x47, 0x1f, 0x3e,
  0x73, 0x05, 0x81, 0x3e, 0xf2, 0x09, 0xd0, 0xbd, 0x8d, 0xf8, 0x26, 0x3e,
  0xc9, 0x65, 0x86, 0xbc, 0x8e, 0x6a, 0x2d, 0xbd, 0x89, 0xf8, 0x14, 0xbd,
  0x11, 0x40, 0x91, 0xbd, 0x9e, 0x14, 0x7a, 0xbd, 0x69, 0x22, 0xd9, 0xbc,
  0x63, 0x17, 0x36, 0xbe, 0x31, 0x8f, 0xf6, 0x3e, 0x20, 0xe4, 0x3d, 0xbc,
  0x9c, 0x46, 0x87, 0xbd, 0xce, 0xf3, 0x94, 0xbc, 0x7a, 0x54, 0xe9, 0xbb,
  0xe6, 0x7e, 0x42, 0x3e, 0xbb, 0x39, 0x8e, 0x3e, 0xe3, 0xbd, 0x08, 0xbd,
  0x18, 0x73, 0x3a, 0x3e, 0x39, 0xdc, 0x3c, 0x3e, 0x06, 0x83, 0xab, 0xbd,
  0x02, 0xec, 0x03, 0xbe, 0x5a, 0xa6, 0x0c, 0x3e, 0x34, 0x45, 0x84, 0x3d,
  0xb9, 0x06, 0xe7, 0x3c, 0x54, 0xf5, 0x25, 0xbe, 0x6d, 0x75, 0x04, 0x3f,
  0x5d, 0x77, 0x83, 0x3e, 0xa0, 0x91, 0x00, 0xbd, 0x5a, 0xa6, 0x09, 0xbe,
  0x23, 0xa6, 0x23, 0xbc, 0x79, 0x2c, 0x1e, 0xbe, 0x50, 0x8b, 0x7d, 0x3e,
  0x49, 0x9a, 0x2b, 0x3d, 0xe1, 0xf7, 0x8d, 0x3d, 0x26, 0xb1, 0x3a, 0x3e,
  0x78, 0x05, 0x78, 0xbd, 0xa4, 0xde, 0x88, 0xbd, 0x80, 0x86, 0x7f, 0x3e,
  0x9b, 0xff, 0x17, 0xbc, 0xae, 0xd3, 0xa2, 0xbd, 0x43, 0xeb, 0xb2, 0x3d,
  0xe8, 0x8b, 0xcb, 0x3d, 0x66, 0x99, 0x13, 0x3c, 0x9f, 0xf5, 0xfa, 0x39,
  0x32, 0x0d, 0x89, 0xbe, 0xea, 0xa9, 0xfc, 0xbd, 0xcd, 0x93, 0xe1, 0x3d,
  0xc0, 0x4b, 0x2b, 0xbe, 0x7f, 0x35, 0x8a, 0x3d, 0x45, 0xec, 0x05, 0xbe,
  0x5e, 0xd3, 0xe0, 0xbd, 0xf7, 0x13, 0xd2, 0xbc, 0x35, 0x9d, 0xa3, 0xbd,
  0xe4, 0x52, 0x8d, 0xbe, 0x06, 0x49, 0x72, 0xbd, 0xb7, 0x0c, 0x18, 0xbe,
  0x9b, 0x0f, 0x8b, 0x3d, 0xb6, 0xd9, 0xfe, 0xbc, 0x29, 0x8d, 0x86, 0x3e,
  0x42, 0xe7, 0x8b, 0xbe, 0xe4, 0x2c, 0xd2, 0xbd, 0x25, 0x26, 0x59, 0xbe,
  0x92, 0x65, 0xce, 0xbc, 0xe2, 0xd0, 0x06, 0x3d, 0x2c, 0xf6, 0xa5, 0x3c,
  0x4c, 0x11, 0xfa, 0xbc, 0x72, 0xe5, 0xe8, 0x3d, 0x9d, 0x32, 0x96, 0xbb,
  0xa7, 0x1d, 0x12, 0xbe, 0xeb, 0x3b, 0x94, 0xbe, 0x0d, 0xb1, 0x09, 0xbe,
  0x71, 0x79, 0x25, 0xbd, 0xe9, 0xb4, 0xf4, 0xbc, 0xc7, 0x2e, 0xf3, 0xbd,
  0x7a, 0x82, 0x67, 0x3d, 0x41, 0x3a, 0xe6, 0x3c, 0xf5, 0x11, 0xa4, 0x3d,
  0x36, 0x61, 0x90, 0xbe, 0xbf, 0xce, 0x1a, 0xbe, 0xcd, 0x10, 0x19, 0xbc,
  0xf5, 0x5e, 0x27, 0xbc, 0xfb, 0xd1, 0x5b, 0xbe, 0x79, 0xa9, 0x2d, 0xbd,
  0x83, 0xab, 0xad, 0x3d, 0x48, 0xaf, 0x00, 0xbe, 0xc5, 0xad, 0xe7, 0xbd,
  0x27, 0x1c, 0xae, 0x3d, 0x2e, 0x87, 0x6e, 0xbe, 0x64, 0xfc, 0x28, 0xba,
  0x94, 0xa9, 0x4f, 0xbe, 0x67, 0xf4, 0x19, 0x3e, 0x44, 0xa2, 0x7f, 0xbe,
  0xfb, 0x77, 0x6a, 0xbe, 0x9b, 0x3d, 0x8a, 0xbd, 0x43, 0xc5, 0xed, 0xbd,
  0x96, 0xac, 0x71, 0xbd, 0xa0, 0x90, 0xfe, 0xbc, 0x45, 0x72, 0xdf, 0xbd,
  0x72, 0x97, 0xaa, 0xbb, 0xe3, 0x62, 0x6d, 0x3a, 0x9f, 0x95, 0x8f, 0xbe,
  0x9b, 0x20, 0xf4, 0x3c, 0xbc, 0xd9, 0xae, 0xbc, 0xfd, 0x7e, 0x50, 0xbe,
  0xf5, 0xa7, 0x84, 0x3c, 0xe3, 0x24, 0xe1, 0x3c, 0xe3, 0x91, 0x80, 0xbd,
  0x71, 0x85, 0x62, 0xbc, 0xcf, 0xf0, 0x83, 0xbe, 0xe8, 0x2f, 0xd6, 0xbd,
  0x3a, 0x14, 0x60, 0xbe, 0x2b, 0xe1, 0xec, 0xbc, 0x1b, 0x1a, 0xb5, 0xbd,
  0xaa, 0xfc, 0xaa, 0xbd, 0x6f, 0xda, 0x5b, 0xbd, 0x7f, 0x3e, 0x7a, 0x3d,
  0xd2, 0x7e, 0x3c, 0x3e, 0x05, 0x23, 0xef, 0xba, 0xc9, 0x65, 0x44, 0xbe,
  0x85, 0x24, 0x9d, 0x3d, 0x30, 0x57, 0xa4, 0xbd, 0x9a, 0xc7, 0x3b, 0xbe,
  0x66, 0x7d, 0x0f, 0xbb, 0xad, 0x09, 0x34, 0x3d, 0xab, 0xc5, 0x5c, 0x3e,
  0x46, 0x29, 0x5b, 0xbd, 0x3d, 0xee, 0x90, 0x3c, 0xfc, 0xd5, 0xd0, 0xbd,
  0x9f, 0x6e, 0x06, 0xbd, 0x81, 0x54, 0xfc, 0xbd, 0xf8, 0x08, 0x06, 0x3e,
  0x00, 0x98, 0xec, 0x3b, 0x7f, 0x7e, 0xd1, 0x3c, 0x81, 0x18, 0xeb, 0xbd,
  0x8c, 0x53, 0xa0, 0xbd, 0xa5, 0x33, 0x87, 0xbe, 0xd3, 0xef, 0x06, 0x3c,
  0x77, 0x73, 0xba, 0x3d, 0xa9, 0x4b, 0xbd, 0x3c, 0xea, 0x3f, 0x1c, 0xbe,
  0xa5, 0x79, 0x7c, 0x3b, 0xa9, 0x13, 0x1a, 0xbd, 0x3b, 0x98, 0xe8, 0xbd,
  0xbd, 0x92, 0x1a, 0xbd, 0xce, 0x11, 0x66, 0xbd, 0x66, 0x9b, 0xb0, 0xbc,
  0xa8, 0xcd, 0xc5, 0x3d, 0xc7, 0xa2, 0x64, 0xbd, 0x34, 0x45, 0x6b, 0x3d,
  0xb1, 0x7b, 0xa0, 0xbd, 0x2a, 0xec, 0x9f, 0xbd, 0xfa, 0xea, 0xfc, 0xbd,
  0xa0, 0xe4, 0xce, 0xbd, 0x84, 0x48, 0x0f, 0xbe, 0xc8, 0xe2, 0x5d, 0x3e,
  0x7c, 0xb8, 0x19, 0x3e, 0xe1, 0xeb, 0x81, 0x3c, 0x1c, 0x9c, 0xd9, 0xbe,
  0x9a, 0x9d, 0x74, 0x3c, 0xd0, 0x29, 0x04, 0xbe, 0x22, 0x69, 0x6d, 0x3d,
  0x33, 0x0e, 0x08, 0xbf, 0x90, 0xed, 0x3b, 0x3e, 0x00, 0x12, 0x80, 0xbe,
  0x22, 0x54, 0x49, 0x3e, 0x7c, 0x33, 0xa1, 0xbe, 0xb7, 0x5d, 0x9c, 0x3d,
  0xad, 0x55, 0x2f, 0xbe, 0x3c, 0x75, 0x31, 0xbe, 0x82, 0x64, 0x07, 0x3e,
  0x41, 0x34, 0xc9, 0x3d, 0x43, 0x39, 0xaf, 0x3d, 0x56, 0x1e, 0x1a, 0x3e,
  0xf4, 0xf6, 0xe4, 0xbe, 0xbd, 0x7f, 0xe2, 0x3d, 0x39, 0x65, 0x17, 0xbe,
  0x60, 0x0d, 0xd7, 0x3d, 0xbc, 0x78, 0xbd, 0xbe, 0x78, 0x7f, 0x6f, 0x3d,
  0x49, 0xcd, 0x3c, 0x3d, 0xae, 0x19, 0xdc, 0x3d, 0x0b, 0xa2, 0xaf, 0x3c,
  0xad, 0xf8, 0x95, 0xbe, 0x2f, 0xc3, 0xab, 0x3c, 0xe7, 0x91, 0x2f, 0x3d,
  0xf6, 0x4e, 0x32, 0x3b, 0x6f, 0xce, 0x14, 0x3e, 0xf1, 0xb3, 0x65, 0xbe,
  0xb7, 0x69, 0xf9, 0xbc, 0x97, 0xfc, 0xfd, 0xbc, 0x8e, 0x8d, 0xbc, 0x3d,
  0x45, 0xd4, 0xac, 0xbd, 0x9a, 0x56, 0x2e, 0x3d, 0x5a, 0x67, 0x16, 0xbb,
  0xc2, 0x57, 0x86, 0xbd, 0xa8, 0xdd, 0x17, 0xbe, 0xcb, 0xa6, 0x91, 0xbc,
  0x81, 0x6d, 0x86, 0x3e, 0x32, 0xfa, 0xaa, 0x3d, 0xde, 0x88, 0xf6, 0xbc,
  0x54, 0x7b, 0xf9, 0x3d, 0x0e, 0x63, 0x1d, 0x3e, 0x08, 0xb4, 0x6f, 0xbe,
  0xcb, 0xcd, 0x32, 0x3d, 0x35, 0x15, 0x86, 0xbd, 0x1c, 0x8c, 0xaa, 0xbe,
  0xe8, 0x19, 0x2d, 0xbe, 0xaf, 0x69, 0x17, 0xbe, 0xf5, 0x73, 0xf2, 0x3c,
  0x84, 0x75, 0x01, 0xbe, 0x52, 0xca, 0xe7, 0xb9, 0xaf, 0x62, 0xa4, 0xbd,
  0xe8, 0x26, 0x25, 0x3d, 0xef, 0x9f, 0x06, 0x3e, 0x0b, 0x70, 0xf2, 0xbd,
  0x1e, 0x46, 0x40, 0x3d, 0x8f, 0xcc, 0x2f, 0x3c, 0xa7, 0x72, 0x68, 0x3e,
  0x40, 0x21, 0xc0, 0xbc, 0x3f, 0x2d, 0x59, 0xbd, 0x17, 0x48, 0xa1, 0x3d,
  0x00, 0xdb, 0x99, 0xbe, 0x04, 0xb5, 0x55, 0xbb, 0x37, 0x91, 0xba, 0x3d,
  0x6f, 0x3c, 0xb9, 0x3e, 0xa7, 0x43, 0xf0, 0xbd, 0xec, 0x41, 0x35, 0x3d,
  0x36, 0x19, 0x2c, 0xbe, 0xa6, 0x15, 0x49, 0x3e, 0x1d, 0x18, 0x6e, 0xbe,
  0x04, 0x4f, 0x66, 0x3e, 0xe8, 0xfd, 0x14, 0x3d, 0x3d, 0x8b, 0x04, 0x3e,
  0x21, 0x5a, 0x9c, 0x3e, 0xd3, 0x75, 0x91, 0xbd, 0x58, 0x1d, 0xb1, 0x3c,
  0x00, 0xbc, 0xb1, 0xbd, 0xc5, 0xb9, 0x89, 0xbe, 0xa4, 0x69, 0xce, 0x3d,
  0x01, 0xe7, 0x8e, 0x3d, 0xd4, 0xbb, 0xe3, 0x3d, 0x95, 0xe8, 0x46, 0xbe,
  0x02, 0x35, 0x60, 0x3d, 0xaf, 0x31, 0x01, 0xbe, 0x35, 0x12, 0xdd, 0x3c,
  0xc8, 0x64, 0x97, 0xbc, 0x12, 0x73, 0xb7, 0x3d, 0xa7, 0xa1, 0x6f, 0xbe,
  0xe1, 0xb8, 0x7a, 0xbe, 0x68, 0x74, 0xc2, 0x3b, 0xa8, 0x5d, 0xfa, 0xbd,
  0x7b, 0x76, 0x81, 0xbd, 0xd8, 0xa2, 0xa7, 0x3d, 0xb9, 0xcd, 0x9d, 0xbe,
  0x7e, 0x7d, 0x00, 0xbd, 0x48, 0x0e, 0x89, 0xbd, 0x18, 0xf1, 0x2c, 0x3d,
  0x23, 0x02, 0xe2, 0xbd, 0xac, 0x15, 0x65, 0xbd, 0x51, 0x7c, 0x8e, 0x3d,
  0x0e, 0x50, 0x01, 0x3e, 0x00, 0x5f, 0xd0, 0x3d, 0x4e, 0x7c, 0x86, 0x3b,
  0x0a, 0x00, 0xd3, 0x3c, 0xee, 0xb7, 0x2f, 0x3d, 0x6d, 0x27, 0x07, 0xbe,
  0xc8, 0x55, 0xb0, 0x3e, 0x4a, 0x11, 0xcb, 0xbd, 0x7a, 0x7f, 0x4b, 0xbd,
  0x23, 0x8e, 0xbc, 0xbe, 0x94, 0x97, 0xd5, 0x3e, 0x4a, 0x07, 0x6d, 0xbe,
  0xbf, 0xb6, 0x88, 0x3d, 0x7e, 0x4f, 0x93, 0xbe, 0x03, 0xbf, 0x9d, 0x3d,
  0x16, 0x6c, 0x86, 0xbe, 0x72, 0xc6, 0xad, 0x3e, 0x53, 0x17, 0xe8, 0xbd,
  0xdf, 0x66, 0x88, 0x3e, 0x3f, 0xb8, 0xd6, 0x3c, 0x64, 0xbc, 0x37, 0xbe,
  0x10, 0x9c, 0x60, 0x3e, 0x11, 0x57, 0xb9, 0x3e, 0xe2, 0x9c, 0x03, 0x3c,
  0x71, 0xa7, 0xaa, 0x3c, 0xe1, 0xa4, 0x8c, 0xbe, 0xb8, 0x84, 0x7c, 0x3d,
  0xad, 0xff, 0xd2, 0xbe, 0x82, 0x0c, 0x80, 0x3e, 0x81, 0xe9, 0xc6, 0xbe,
  0x2f, 0x75, 0x8c, 0x3d, 0xa0, 0xa7, 0x8d, 0xbd, 0xe5, 0x48, 0x1d, 0x3e,
  0xc0, 0xf4, 0x17, 0x3e, 0xec, 0xa1, 0x4c, 0xbd, 0x4a, 0xbc, 0xa0, 0xbe,
  0x0a, 0x71, 0x35, 0xbe, 0xc9, 0xba, 0x47, 0xbe, 0xfc, 0xfe, 0x45, 0x3e,
  0x8b, 0x23, 0x45, 0xbc, 0x34, 0xc7, 0xc6, 0xbc, 0x61, 0xf9, 0x97, 0xbe,
  0x71, 0x9c, 0x09, 0x3d, 0x68, 0x94, 0xaa, 0xbe, 0x4f, 0x4f, 0x18, 0x3e,
  0xa1, 0xc8, 0xd5, 0x3d, 0x08, 0x9c, 0x45, 0xbc, 0x5c, 0x85, 0x36, 0x3e,
  0x56, 0x52, 0xc1, 0x3d, 0x99, 0xee, 0x94, 0x3e, 0xd2, 0x64, 0x6d, 0xbe,
  0xf8, 0xa2, 0x3a, 0xbe, 0xde, 0x0e, 0x82, 0x3e, 0x36, 0x5e, 0xcf, 0xbd,
  0x7c, 0x53, 0x40, 0xbe, 0x89, 0x31, 0x39, 0xbd, 0x78, 0xc2, 0xfb, 0xbd,
  0x30, 0xe4, 0x39, 0xbe, 0x33, 0xba, 0xda, 0x3c, 0xe7, 0x1f, 0x92, 0xbe,
  0x1f, 0x6e, 0x5f, 0x3e, 0x7f, 0xcb, 0xb2, 0xbc, 0xbf, 0x6e, 0x71, 0xbd,
  0x39, 0xb0, 0x8b, 0x3d, 0xed, 0x7b, 0xd0, 0xbd, 0x1c, 0x50, 0x4f, 0x3d,
  0xa9, 0xd4, 0x63, 0x3d, 0x4a, 0x4f, 0x50, 0x3b, 0x83, 0x58, 0x26, 0x3e,
  0x31, 0x76, 0x9c, 0x3d, 0xce, 0xb0, 0xcc, 0xbd, 0xf3, 0x9f, 0xa4, 0xbd,
  0xc8, 0xa4, 0xa0, 0x3d, 0x62, 0xe2, 0x0e, 0xbe, 0x4a, 0xb3, 0xcc, 0x3d,
  0x02, 0xde, 0xbc, 0xbc, 0x03, 0x4d, 0x34, 0x3e, 0xe5, 0x6b, 0xdc, 0xbc,
  0xdb, 0x4f, 0x82, 0x3d, 0x4b, 0xf5, 0x74, 0x3e, 0x98, 0x7b, 0x64, 0x3d,
  0x69, 0x0b, 0x99, 0x3d, 0xcf, 0x8f, 0x58, 0x3d, 0x95, 0x97, 0xe8, 0xbd,
  0x20, 0xac, 0x11, 0x3e, 0x6c, 0x4c, 0x21, 0xbd, 0xe7, 0xc3, 0x41, 0xbd,
  0xeb, 0xc5, 0x6a, 0xbe, 0x6f, 0xd0, 0xff, 0x3b, 0x37, 0xa3, 0x8b, 0xbe,
  0xd4, 0xf9, 0xef, 0x3c, 0x5b, 0x75, 0x86, 0xbe, 0x87, 0x66, 0x4a, 0xbd,
  0x65, 0x60, 0x84, 0xbe, 0xcb, 0xb3, 0x6f, 0x3d, 0x32, 0x27, 0x1e, 0x3d,
  0xfb, 0x90, 0x19, 0x3e, 0xf9, 0x8e, 0x8a, 0x3b, 0x11, 0x42, 0x9c, 0x3d,
  0x44, 0xb7, 0x35, 0x3d, 0x22, 0x06, 0x5b, 0xbb, 0x12, 0x8d, 0xc1, 0x3c,
  0xc3, 0xb4, 0x0f, 0x3e, 0xa1, 0x20, 0x0a, 0xbe, 0x51, 0xa4, 0x31, 0x3e,
  0xd2, 0x97, 0xd1, 0xbd, 0x38, 0xb6, 0xcf, 0xbd, 0xfe, 0x40, 0x9d, 0xbe,
  0x1e, 0x4b, 0x0c, 0x3e, 0x79, 0x42, 0xe8, 0x3d, 0x53, 0xe2, 0x80, 0x3e,
  0x99, 0x89, 0x86, 0x3d, 0x97, 0x56, 0x95, 0x3d, 0x88, 0x4e, 0x2e, 0xbd,
  0xef, 0x79, 0x16, 0xbe, 0xcb, 0xab, 0x86, 0xbe, 0x90, 0xbf, 0x6e, 0x3d,
  0x5d, 0xe6, 0x0f, 0x3e, 0x8f, 0xc3, 0x97, 0x3d, 0x1c, 0x3b, 0x15, 0xbd,
  0x61, 0x8c, 0x4f, 0x3e, 0x1f, 0xd8, 0x77, 0xbe, 0x33, 0xa1, 0xa9, 0x3d,
  0xdc, 0x5a, 0x19, 0xbe, 0x10, 0xa0, 0x14, 0xbe, 0xa9, 0x31, 0x1c, 0xbf,
  0xcb, 0x40, 0xb3, 0x3e, 0x40, 0x75, 0xb4, 0xbd, 0xb2, 0xa3, 0xfe, 0x3e,
  0xca, 0x52, 0x27, 0xbe, 0x2b, 0xee, 0xc1, 0x3e, 0x13, 0xda, 0xe8, 0xbe,
  0x70, 0x66, 0xa3, 0xba, 0xa0, 0x61, 0xae, 0xbd, 0x03, 0xd0, 0x89, 0x3e,
  0x2f, 0x86, 0x49, 0x3e, 0x30, 0xcf, 0xa9, 0x3c, 0xa9, 0x5d, 0x88, 0xbd,
  0x78, 0xef, 0x97, 0x3d, 0xd6, 0x91, 0x17, 0xbe, 0x93, 0x6a, 0xed, 0x3d,
  0x5a, 0x04, 0x11, 0xbf, 0x5f, 0xc9, 0x8a, 0x3d, 0x70, 0x75, 0x3e, 0x3d,
  0xd3, 0xcd, 0x36, 0x3e, 0x02, 0xe6, 0xbd, 0xbd, 0xd0, 0x18, 0x6c, 0x3d,
  0x1f, 0xaa, 0x1a, 0xbf, 0xef, 0x6d, 0xcd, 0x3d, 0xc0, 0x63, 0x75, 0xbe,
  0x42, 0x6f, 0xab, 0xbd, 0xce, 0x49, 0x05, 0x3e, 0x55, 0x06, 0xe2, 0x3d,
  0x21, 0x25, 0xf0, 0x3d, 0x8b, 0x71, 0xb1, 0x3d, 0xad, 0xdb, 0xf9, 0xbd,
  0x71, 0xeb, 0x21, 0xbe, 0x08, 0x6d, 0x7f, 0xbc, 0xb2, 0xad, 0x39, 0xbd,
  0x07, 0x81, 0xca, 0xbe, 0xb0, 0x46, 0xa0, 0xbd, 0x17, 0x81, 0x74, 0x3e,
  0xef, 0xfc, 0x9d, 0x3d, 0x28, 0xdb, 0x01, 0xbe, 0x71, 0xc3, 0xb1, 0x3e,
  0x62, 0x1c, 0x7b, 0xbe, 0x70, 0x4d, 0xbd, 0xbc, 0x30, 0x33, 0xcf, 0x3d,
  0x9e, 0xc1, 0x05, 0xbe, 0xb9, 0x0f, 0xb8, 0xbd, 0x98, 0x70, 0x0d, 0x3e,
  0xdf, 0x99, 0xb9, 0x3d, 0xbb, 0x9e, 0x1d, 0x3e, 0x8c, 0x37, 0x93, 0x3d,
  0xc1, 0x15, 0xf0, 0xbd, 0xe0, 0x35, 0x55, 0x3e, 0x06, 0xf6, 0x53, 0x3c,
  0x28, 0x58, 0x35, 0x3e, 0x47, 0x89, 0x00, 0xbd, 0x03, 0x68, 0xa8, 0xbc,
  0xc7, 0x93, 0xb0, 0x3e, 0x5a, 0x0d, 0x0b, 0x3e, 0x06, 0xb2, 0xbe, 0x3d,
  0x69, 0x53, 0x1d, 0xbe, 0xbc, 0x19, 0x94, 0x3c, 0x8a, 0xfc, 0x7b, 0xbd,
  0x26, 0x21, 0x96, 0x3e, 0xff, 0x0a, 0x3a, 0x3e, 0xd0, 0x59, 0x43, 0x3e,
  0x07, 0xc6, 0x96, 0xbe, 0x31, 0x10, 0x8a, 0xbe, 0x8a, 0xc6, 0x4d, 0xbd,
  0xce, 0x17, 0xbb, 0x3d, 0x4a, 0xb0, 0xad, 0xbc, 0xa9, 0x56, 0xb0, 0x3d,
  0x26, 0x1e, 0x83, 0xbe, 0x37, 0x1d, 0x30, 0x3e, 0x3f, 0x01, 0xd1, 0x3d,
  0xfc, 0x64, 0x5b, 0xbc, 0x4e, 0x99, 0x31, 0x3d, 0xbf, 0x60, 0x84, 0x3e,
  0xd9, 0xce, 0x74, 0xbd, 0x6e, 0xf6, 0x9b, 0x3d, 0xa9, 0x50, 0x9a, 0x3d,
  0xdc, 0xed, 0x46, 0x3e, 0x52, 0x3f, 0x41, 0xbe, 0xb5, 0x79, 0x92, 0xbe,
  0x4d, 0xa4, 0x2c, 0xbe, 0x67, 0x61, 0xfa, 0x3c, 0x54, 0x66, 0x58, 0xbd,
  0x1e, 0x9c, 0x0f, 0x3d, 0xf3, 0x9e, 0x9e, 0xbe, 0x2d, 0x5b, 0x51, 0x3e,
  0x24, 0x29, 0x3e, 0x3d, 0x70, 0xcd, 0x84, 0x3d, 0x56, 0x0e, 0x03, 0xbe,
  0xf5, 0xc7, 0x1d, 0x3e, 0x15, 0xca, 0xdf, 0xbd, 0xd3, 0xe0, 0x86, 0x3e,
  0x11, 0xc2, 0x89, 0x3d, 0xe4, 0x1b, 0x2b, 0x3c, 0x02, 0x5a, 0x29, 0xbd,
  0xc6, 0x82, 0x88, 0x3d, 0xab, 0x55, 0x22, 0xbd, 0x8d, 0xf7, 0x45, 0x3d,
  0xda, 0xc7, 0x83, 0x3e, 0xd5, 0x99, 0x02, 0x3e, 0xbb, 0xe2, 0xec, 0xbd,
  0x00, 0x4a, 0x82, 0x3e, 0xb3, 0x37, 0x89, 0x3d, 0x5f, 0xae, 0x26, 0xbe,
  0xa2, 0x3f, 0xbd, 0xbd, 0xf2, 0x1a, 0x01, 0x3f, 0x25, 0xb5, 0x21, 0xbd,
  0x4f, 0x5e, 0x8b, 0x3e, 0x34, 0x77, 0xae, 0xbe, 0x32, 0xff, 0x78, 0xbe,
  0xaa, 0x8c, 0x71, 0x3c, 0x49, 0xb3, 0xb7, 0x3d, 0xd7, 0xda, 0xc9, 0xbe,
  0x49, 0x4f, 0x49, 0xbe, 0x0e, 0x21, 0x3c, 0x3e, 0xc0, 0xca, 0x81, 0x3c,
  0xf1, 0x2a, 0xff, 0xbe, 0xfc, 0xf0, 0xff, 0xbe, 0x49, 0xcd, 0x22, 0x3e,
  0xdc, 0xc3, 0xc8, 0xbe, 0xc9, 0xa5, 0x63, 0xbe, 0x50, 0x58, 0x23, 0xbe,
  0x44, 0x30, 0x96, 0xbb, 0xad, 0x1f, 0xfe, 0x3d, 0x2b, 0xd7, 0x87, 0x3e,
  0x48, 0xbe, 0x5d, 0xbe, 0x42, 0x60, 0x50, 0x3e, 0xdf, 0xf7, 0xff, 0xbc,
  0xb9, 0xc4, 0xbd, 0x3e, 0xb9, 0x9a, 0xc6, 0x3c, 0x5b, 0x5a, 0xfc, 0x3d,
  0x9d, 0x71, 0x1d, 0x3e, 0x06, 0x95, 0xa3, 0xbe, 0x5f, 0x56, 0x73, 0x3e,
  0x19, 0x62, 0x63, 0xbe, 0x98, 0x53, 0x60, 0xbd, 0x93, 0x88, 0x9b, 0xbd,
  0x3b, 0x5d, 0x0d, 0xbe, 0x4e, 0xeb, 0x75, 0xbc, 0x62, 0x8c, 0xcc, 0xbd,
  0x9b, 0x87, 0x03, 0x3e, 0xf2, 0x0d, 0xef, 0xbc, 0xfb, 0x7d, 0x23, 0xbc,
  0xce, 0xe3, 0x63, 0xbd, 0xe0, 0xe6, 0x03, 0xbe, 0x9e, 0xcf, 0x02, 0xbe,
  0x33, 0x11, 0xd6, 0xbe, 0x89, 0x69, 0x48, 0x3e, 0x4f, 0x6e, 0x61, 0xbe,
  0x4e, 0x48, 0x40, 0x3e, 0x58, 0x3b, 0x56, 0xbe, 0x7b, 0xc9, 0xcc, 0x3d,
  0xad, 0x1d, 0x53, 0x3d, 0x73, 0x32, 0xe3, 0xbd, 0xbe, 0xfa, 0x1c, 0xbc,
  0xea, 0x63, 0xa3, 0x3e, 0x11, 0x3d, 0x16, 0x3d, 0xe7, 0x7a, 0x08, 0xbc,
  0x75, 0xc6, 0xbf, 0xbd, 0x10, 0x1b, 0xe6, 0xbc, 0x03, 0x2d, 0xd9, 0x3d,
  0xab, 0xf0, 0x60, 0xbe, 0x81, 0xd1, 0x9a, 0xbe, 0xe8, 0x4d, 0xce, 0x3d,
  0xcb, 0xc6, 0x96, 0xbc, 0x8b, 0xeb, 0x77, 0x3c, 0x05, 0x9d, 0x6b, 0xbb,
  0x45, 0xbc, 0x0b, 0xbe, 0x6e, 0x3b, 0xb9, 0x3c, 0x22, 0x49, 0xcf, 0xbd,
  0x0d, 0xb9, 0x93, 0xbc, 0x6d, 0x39, 0x45, 0x3e, 0x33, 0x27, 0x12, 0xbe,
  0x29, 0x51, 0x4b, 0xbe, 0x06, 0x27, 0x28, 0x3c, 0xb1, 0x05, 0x17, 0xbe,
  0x11, 0xb4, 0xe9, 0xbe, 0xc3, 0x8d, 0x23, 0xbd, 0xe7, 0x16, 0xac, 0x3d,
  0xec, 0x36, 0x25, 0xbe, 0x4a, 0xd5, 0x0b, 0xbe, 0xbd, 0x35, 0x22, 0xbe,
  0x14, 0xb5, 0x11, 0xbe, 0xa0, 0x62, 0xa7, 0xbd, 0xee, 0xb5, 0xc3, 0xbc,
  0x8f, 0x5c, 0x20, 0xbe, 0x9b, 0x80, 0x13, 0x3c, 0x92, 0xd5, 0x06, 0x3d,
  0x04, 0x50, 0xaa, 0x3d, 0x6c, 0xf2, 0xe2, 0xbc, 0xcf, 0x28, 0x1d, 0x3e,
  0x0b, 0x1c, 0x9b, 0xbd, 0xbf, 0xe5, 0x07, 0xbe, 0xf3, 0x5d, 0x6c, 0xbd,
  0xed, 0xdd, 0x89, 0x3d, 0xad, 0xae, 0x14, 0x3e, 0x01, 0x6d, 0x77, 0xbe,
  0x09, 0xee, 0x54, 0x3e, 0xd5, 0x79, 0x33, 0xbe, 0xef, 0x2f, 0x12, 0x3e,
  0x9c, 0xac, 0xc3, 0x3d, 0xc1, 0x99, 0x97, 0xbc, 0xdd, 0x05, 0x1d, 0x3d,
  0x51, 0x65, 0x0a, 0x3e, 0x59, 0x54, 0xd3, 0x3c, 0x73, 0xfe, 0x26, 0xbe,
  0xe7, 0x0f, 0x68, 0x3d, 0x61, 0x86, 0xbf, 0xbe, 0xc2, 0x2f, 0x52, 0x3e,
  0x72, 0x87, 0x2d, 0xbe, 0x51, 0xfc, 0x92, 0x3e, 0xbe, 0x5d, 0x4c, 0x3e,
  0x61, 0x6c, 0x35, 0xbd, 0x80, 0xd1, 0x46, 0x3e, 0x44, 0x0e, 0x24, 0x3b,
  0x13, 0x26, 0xb3, 0x3b, 0x39, 0x04, 0xdd, 0x3d, 0x41, 0xff, 0x5a, 0xbe,
  0x99, 0x57, 0x0b, 0xbe, 0xdf, 0xdd, 0x21, 0x3e, 0xbb, 0xe9, 0x92, 0xbe,
  0x29, 0x36, 0x08, 0xbc, 0x47, 0x27, 0x94, 0xbd, 0xf8, 0x8d, 0x6c, 0xbd,
  0x72, 0x22, 0xec, 0xbb, 0x3b, 0x51, 0x78, 0xbe, 0x35, 0xce, 0x0f, 0x3e,
  0x20, 0xf2, 0x5b, 0xbe, 0xad, 0xcf, 0x22, 0xbe, 0x5b, 0x0c, 0x46, 0xbe,
  0x48, 0x3f, 0xa5, 0xbc, 0xbf, 0xbf, 0x2a, 0x3e, 0xdf, 0xa2, 0xc9, 0x3d,
  0xb3, 0x4b, 0x10, 0xbe, 0xf5, 0x8d, 0x87, 0xbe, 0x42, 0x98, 0xb9, 0xbd,
  0x02, 0x29, 0xc5, 0xbc, 0xff, 0xf9, 0x1d, 0xbe, 0x49, 0xa2, 0x9a, 0xbe,
  0x6c, 0x4a, 0x8c, 0xbe, 0x34, 0xca, 0xb2, 0xbc, 0xcf, 0xb4, 0xbe, 0xbd,
  0x8f, 0xf8, 0x68, 0x3b, 0xa4, 0xaa, 0xd2, 0xbc, 0xbb, 0xf0, 0x15, 0x3e,
  0x70, 0x49, 0xf0, 0xbd, 0x3e, 0xa2, 0x94, 0x3d, 0xf2, 0x4b, 0xb4, 0xbb,
  0x2a, 0x4f, 0xc2, 0xbd, 0x3c, 0x96, 0x3e, 0xbd, 0x75, 0x39, 0x50, 0xbe,
  0x1d, 0xe9, 0xd5, 0x3d, 0x48, 0x24, 0xfe, 0x39, 0xcf, 0x07, 0xa4, 0x3d,
  0x82, 0x87, 0xb3, 0xbd, 0x75, 0x63, 0x91, 0x3c, 0x42, 0x30, 0x0f, 0x3c,
  0xdc, 0x0d, 0xe9, 0x3a, 0x0d, 0x73, 0xef, 0x3d, 0xad, 0x0d, 0x09, 0xbe,
  0x0e, 0x34, 0x25, 0x3e, 0xfb, 0x3f, 0x25, 0xba, 0x3e, 0xaa, 0xbb, 0x3d,
  0x60, 0x11, 0x83, 0x3c, 0xb4, 0x6c, 0xb7, 0xbd, 0x1c, 0x94, 0x7a, 0xbe,
  0x1f, 0x42, 0xcb, 0xbd, 0x1c, 0x67, 0x30, 0xbe, 0xa5, 0x6b, 0x2c, 0x3c,
  0x41, 0x69, 0xe9, 0x3d, 0x51, 0xad, 0x4f, 0xbe, 0xed, 0x0d, 0xbf, 0xbc,
  0xef, 0x52, 0x2b, 0xbe, 0x62, 0x8e, 0x21, 0x3d, 0xd4, 0xf8, 0x88, 0x3d,
  0x5b, 0xa8, 0x4f, 0xbe, 0xbd, 0x06, 0xa0, 0x3d, 0x54, 0x08, 0x1f, 0xbd,
  0xf6, 0x60, 0xd3, 0xbd, 0xe8, 0x47, 0xd7, 0x3d, 0xa8, 0xaa, 0x0f, 0xbe,
  0x70, 0xa9, 0x8f, 0xbe, 0x2d, 0xc8, 0xcc, 0xbd, 0xbe, 0x60, 0x30, 0x3e,
  0xa0, 0xd8, 0xd6, 0xbd, 0xfb, 0x28, 0x04, 0xbe, 0xeb, 0x7e, 0x2b, 0xbd,
  0x7c, 0xa8, 0xf9, 0xbd, 0xdb, 0xc0, 0x0b, 0x3e, 0xff, 0x9e, 0xd2, 0xbd,
  0xdb, 0xb4, 0x6b, 0xbd, 0x99, 0xba, 0xfe, 0xbd, 0x4c, 0x68, 0x67, 0x3d,
  0x20, 0x2b, 0x31, 0xbe, 0x12, 0xa4, 0xf0, 0xbd, 0x3b, 0x6f, 0x4e, 0x3d,
  0x10, 0x37, 0xf9, 0xbd, 0x7b, 0x17, 0xd0, 0xbb, 0xc3, 0x30, 0xb0, 0xbd,
  0x23, 0x1b, 0x30, 0x3d, 0xd0, 0x9c, 0x9f, 0xbd, 0x67, 0x4c, 0x7d, 0x3c,
  0x8d, 0xba, 0x0e, 0xbe, 0x3d, 0xc4, 0xc3, 0xbb, 0xec, 0xcb, 0xb5, 0xbd,
  0xc1, 0xec, 0xd2, 0xbd, 0xa0, 0x87, 0x4a, 0xbd, 0xeb, 0x95, 0xda, 0xbb,
  0xd8, 0xd4, 0xd5, 0xbd, 0x04, 0x2c, 0xd0, 0xbb, 0xe9, 0x65, 0x34, 0x3d,
  0x73, 0x64, 0x9f, 0x3d, 0xf7, 0x26, 0xa8, 0xbd, 0x6e, 0x78, 0xc8, 0xbd,
  0xdd, 0x6a, 0x5c, 0x3d, 0x8b, 0x75, 0x0c, 0xbd, 0x89, 0x72, 0xc1, 0xbd,
  0xf3, 0x3b, 0xdf, 0x3c, 0xd7, 0x44, 0x0f, 0xbe, 0x4c, 0xa7, 0xfa, 0x3c,
  0x4e, 0xd5, 0x18, 0xbe, 0x08, 0x24, 0xdf, 0xbd, 0x9b, 0x35, 0x49, 0xbe,
  0xcd, 0x61, 0xba, 0xbd, 0xa2, 0xd2, 0x00, 0xbc, 0x13, 0x9d, 0xae, 0x3d,
  0xb0, 0xba, 0xad, 0x3d, 0xc8, 0xcb, 0xc7, 0xbd, 0xe3, 0xcf, 0xd3, 0x3d,
  0x76, 0xc1, 0x97, 0xbe, 0x20, 0x73, 0xc8, 0xbd, 0xd1, 0x11, 0x84, 0xbd,
  0x71, 0xe0, 0x6c, 0xbe, 0xc2, 0x96, 0xb3, 0x3d, 0xdc, 0xb8, 0xa6, 0xbe,
  0x30, 0xdd, 0x87, 0xbd, 0xea, 0xcf, 0x5e, 0xbe, 0x2d, 0xba, 0x80, 0xbd,
  0x35, 0xc7, 0x14, 0xbe, 0xb7, 0xde, 0x0e, 0xbe, 0x97, 0xdf, 0xa7, 0x3d,
  0xcb, 0x8f, 0x2b, 0x3d, 0x4f, 0x79, 0x2a, 0xbe, 0x67, 0x8a, 0x1e, 0xbe,
  0xf9, 0xcb, 0xa4, 0xbd, 0xff, 0xc7, 0xf5, 0xbc, 0xe1, 0x08, 0x1a, 0xbe,
  0xa6, 0xc7, 0xc6, 0xbb, 0x58, 0x75, 0x40, 0xbe, 0x00, 0x0f, 0xeb, 0xbd,
  0xd4, 0xb5, 0x27, 0x3d, 0xb5, 0xf6, 0xe7, 0x3c, 0x5c, 0x91, 0x12, 0x3e,
  0xf6, 0xaf, 0x90, 0xbb, 0xbd, 0xf6, 0xa0, 0x3d, 0x63, 0x8a, 0x16, 0xbe,
  0xb5, 0xe5, 0xcc, 0xbd, 0x34, 0xf3, 0x54, 0xbb, 0x1a, 0x44, 0xb6, 0x3c,
  0x2b, 0x1d, 0x19, 0xbe, 0xca, 0x8a, 0x26, 0xbe, 0x5b, 0x0d, 0x7f, 0xbd,
  0x65, 0x9c, 0x57, 0xbe, 0xe0, 0x5f, 0x1b, 0x3d, 0x08, 0x66, 0x36, 0xbc,
  0x5d, 0x2e, 0x9b, 0x3d, 0x31, 0x19, 0x8f, 0xbd, 0x98, 0xa4, 0x5f, 0xbc,
  0x0d, 0xd6, 0x92, 0xbd, 0x78, 0xf9, 0xf4, 0xbc, 0x0c, 0x64, 0x11, 0xbb,
  0x65, 0xaa, 0x9e, 0xbd, 0x06, 0x49, 0x52, 0x3d, 0x72, 0x93, 0x01, 0xbe,
  0x30, 0x96, 0x54, 0x3d, 0xca, 0x42, 0x39, 0xbe, 0xd0, 0x49, 0xc2, 0xbc,
  0xde, 0xe6, 0x7b, 0xbe, 0x5a, 0x07, 0x71, 0xbe, 0x2b, 0xf3, 0x0f, 0xbe,
  0x2f, 0x0f, 0x87, 0xbe, 0x5d, 0x26, 0x06, 0x3e, 0xdd, 0xbb, 0x67, 0xbe,
  0x87, 0xa3, 0x15, 0xbe, 0xba, 0x9f, 0x67, 0xbe, 0xde, 0x45, 0x09, 0xbe,
  0xef, 0xe2, 0x0e, 0x3c, 0x9e, 0x06, 0x87, 0xbd, 0x67, 0xa8, 0x04, 0xbe,
  0xa5, 0x28, 0xce, 0x3d, 0x90, 0x7d, 0x4f, 0xbe, 0x5e, 0xa2, 0x93, 0xbd,
  0x88, 0x4a, 0xc9, 0x3d, 0xc0, 0x21, 0xe9, 0xbc, 0x98, 0x1f, 0xad, 0xbd,
  0xfd, 0x8d, 0x63, 0xbd, 0x6b, 0xae, 0x86, 0x3c, 0x0f, 0x25, 0xe0, 0xbc,
  0x4c, 0x7c, 0x8e, 0xbe, 0xd0, 0x26, 0x2e, 0xbe, 0xfc, 0x2c, 0x0c, 0x3e,
  0x80, 0x10, 0x13, 0x3e, 0x55, 0xfe, 0x46, 0xbe, 0xef, 0xbb, 0x6f, 0xbe,
  0xc7, 0xe6, 0x74, 0xbe, 0x80, 0x2e, 0x22, 0xbe, 0x07, 0xa6, 0xa3, 0x3d,
  0xb7, 0x40, 0x3a, 0xbd, 0x2d, 0x96, 0x20, 0xbe, 0x3a, 0xd5, 0x86, 0x3d,
  0x3f, 0xba, 0xcc, 0x3c, 0x14, 0x00, 0x5c, 0x3e, 0xa7, 0x68, 0x83, 0xbe,
  0x32, 0x30, 0xf6, 0xbd, 0xea, 0xd3, 0x6d, 0xbd, 0xcd, 0xfc, 0xb5, 0xbd,
  0xea, 0x7d, 0xe8, 0x3c, 0x18, 0x12, 0x6f, 0xbc, 0x59, 0x0a, 0x15, 0xbe,
  0xc5, 0xf2, 0x50, 0xbd, 0x25, 0x24, 0x40, 0x3d, 0x82, 0xbb, 0x69, 0xbd,
  0xab, 0xe0, 0xeb, 0xbd, 0x58, 0xa8, 0x19, 0x3e, 0x74, 0x22, 0x3c, 0xbe,
  0x5a, 0x5d, 0xbc, 0x3d, 0x1c, 0x66, 0x6b, 0xbe, 0xdb, 0xcd, 0x68, 0xbe,
  0x8d, 0xf2, 0xa2, 0x3d, 0x89, 0x16, 0x02, 0x3e, 0x24, 0x89, 0xd7, 0xbd,
  0x6b, 0xea, 0x60, 0xbb, 0x69, 0x6b, 0x33, 0x3d, 0xa9, 0x75, 0xc5, 0xbd,
  0x70, 0x32, 0x4b, 0xbe, 0x81, 0xd7, 0xcb, 0xbd, 0x45, 0xde, 0x03, 0x3d,
  0x83, 0x86, 0x08, 0xbe, 0xae, 0x61, 0x9d, 0x3c, 0xc6, 0xba, 0x71, 0x3d,
  0x7b, 0x20, 0x70, 0xbd, 0x2d, 0x8c, 0xf1, 0xbd, 0x6a, 0x4e, 0x61, 0xbe,
  0x16, 0x9d, 0x78, 0xbe, 0x42, 0xda, 0xc9, 0xba, 0x21, 0x2f, 0x77, 0xbe,
  0xc8, 0x7e, 0xb7, 0xbd, 0x49, 0x2c, 0x2a, 0xbd, 0x20, 0xa9, 0xbd, 0x3d,
  0x9e, 0x9f, 0x40, 0xbd, 0xfa, 0xd3, 0x3e, 0xbe, 0x5a, 0xe3, 0xde, 0xbd,
  0x72, 0x61, 0x57, 0xbe, 0x26, 0xbb, 0x80, 0x3d, 0x89, 0x99, 0x0f, 0x3d,
  0x93, 0xa1, 0xff, 0xbc, 0xea, 0xde, 0x34, 0xbe, 0x29, 0xec, 0x3b, 0xbe,
  0x47, 0x5f, 0x38, 0xbe, 0x1b, 0xdd, 0xbf, 0xbc, 0x7b, 0xbe, 0x2a, 0xbe,
  0xf6, 0x57, 0xdc, 0x3d, 0x23, 0x09, 0xe7, 0x3c, 0xa5, 0x0e, 0xcf, 0x3c,
  0x09, 0xa9, 0x24, 0xbe, 0x3e, 0xb1, 0x65, 0xbe, 0xa5, 0x52, 0xbd, 0x3d,
  0x62, 0x70, 0x85, 0xbe, 0x95, 0xbf, 0x68, 0x3d, 0x4c, 0x22, 0x29, 0x3d,
  0x12, 0xf5, 0x85, 0x3d, 0xa2, 0x06, 0xe7, 0x3b, 0x6e, 0xe1, 0x18, 0x3d,
  0xc8, 0x5f, 0x93, 0xbd, 0x46, 0x32, 0x0e, 0x3d, 0xe4, 0x08, 0x0d, 0x3e,
  0x58, 0x67, 0x3c, 0xbc, 0x64, 0xe3, 0xd8, 0x3d, 0x56, 0x56, 0x34, 0xbe,
  0xd2, 0xe5, 0xde, 0x3d, 0xca, 0x6e, 0x11, 0x3d, 0x65, 0x83, 0x8f, 0x3d,
  0xa1, 0x8a, 0xa8, 0xbd, 0x0b, 0x7a, 0x8b, 0xbd, 0xf7, 0xeb, 0x78, 0xbd,
  0xe1, 0x8e, 0x0f, 0x3e, 0xa3, 0xf2, 0x79, 0xbe, 0x45, 0x14, 0x16, 0xbe,
  0xda, 0x65, 0xaf, 0x3c, 0xe5, 0x4e, 0x1f, 0xbc, 0xdc, 0x32, 0xba, 0xbd,
  0x85, 0x6d, 0x0f, 0x3e, 0xed, 0x74, 0x31, 0x3d, 0x21, 0x97, 0x05, 0xbe,
  0xe5, 0x43, 0x70, 0xbe, 0x3f, 0xb2, 0x83, 0xbe, 0x4c, 0x1b, 0x3f, 0xbe,
  0xec, 0x6a, 0xcf, 0xbd, 0xc1, 0x75, 0x5a, 0xbe, 0x04, 0xa2, 0x99, 0xbd,
  0x8c, 0xb8, 0xa3, 0xbd, 0xf6, 0x5d, 0xdf, 0xbd, 0xbd, 0x7e, 0x26, 0x3c,
  0x76, 0xca, 0x75, 0x3d, 0x1b, 0xaf, 0xb5, 0xbc, 0x04, 0x50, 0x5a, 0x3c,
  0x7f, 0x61, 0x60, 0xbe, 0xb2, 0xc0, 0x45, 0xbe, 0x94, 0x95, 0x08, 0xbe,
  0x09, 0x43, 0x44, 0xbe, 0x56, 0x38, 0x45, 0xbe, 0xe1, 0xc5, 0xb6, 0xbd,
  0xe5, 0xb9, 0x92, 0xbd, 0x13, 0x59, 0xce, 0xbd, 0x65, 0x70, 0x70, 0xbe,
  0xd5, 0x29, 0x93, 0x3d, 0xb6, 0x33, 0xba, 0xbc, 0xf8, 0xce, 0xbb, 0x3d,
  0x2e, 0x47, 0xeb, 0xbd, 0xac, 0x43, 0x9c, 0x3c, 0xe5, 0x27, 0xac, 0x3d,
  0x3b, 0x71, 0x80, 0xbe, 0x99, 0xca, 0x86, 0xbe, 0xde, 0x09, 0x11, 0xbe,
  0x8b, 0x22, 0x49, 0xbe, 0x38, 0x14, 0x99, 0x3d, 0x53, 0x5d, 0x92, 0xbe,
  0xa0, 0x00, 0x46, 0xbe, 0xa0, 0x12, 0x8c, 0xbd, 0x7f, 0x84, 0x79, 0xbe,
  0x2e, 0xa1, 0x0c, 0xbe, 0x19, 0xaa, 0x52, 0x3d, 0x93, 0x01, 0x58, 0xbe,
  0x2f, 0x54, 0xbb, 0xbd, 0xde, 0x00, 0x11, 0xbd, 0x71, 0xcf, 0xcb, 0x3d,
  0x00, 0x77, 0xcb, 0xbc, 0x1d, 0x1a, 0x9c, 0xbe, 0x8b, 0x73, 0x53, 0xbd,
  0x09, 0x5b, 0x13, 0x3e, 0xc2, 0xdc, 0x91, 0x3c, 0x96, 0xba, 0x39, 0xbe,
  0xa8, 0xd4, 0xbd, 0x3d, 0x8d, 0x4e, 0x48, 0xbe, 0x3e, 0xa1, 0xe8, 0xbd,
  0xc2, 0x71, 0x7d, 0xbe, 0xa1, 0x49, 0x12, 0xbe, 0x8f, 0x9f, 0x19, 0xbb,
  0x44, 0x51, 0x63, 0x3d, 0x51, 0x6c, 0x0f, 0xbd, 0x46, 0x75, 0x17, 0xbe,
  0x66, 0xe3, 0xff, 0xbd, 0xa3, 0x14, 0x41, 0x3d, 0x00, 0xb0, 0x0c, 0x3f,
  0x96, 0xf6, 0x2e, 0xbc, 0x4a, 0xa9, 0x55, 0xbd, 0x9e, 0xee, 0xac, 0xbe,
  0xbc, 0xef, 0xdd, 0xbe, 0xde, 0x1c, 0xf7, 0x3e, 0xf3, 0x8a, 0xb3, 0x3e,
  0x59, 0xe3, 0x23, 0xbd, 0x9d, 0xe0, 0xc1, 0xbe, 0x2a, 0x66, 0xfd, 0x3e,
  0xc9, 0x7b, 0x84, 0xbe, 0x7b, 0x78, 0x9b, 0xbc, 0x21, 0x59, 0x43, 0xbd,
  0xbd, 0x6e, 0x86, 0x3d, 0x35, 0xa4, 0x08, 0xbf, 0xbc, 0x3e, 0x17, 0xbf,
  0x24, 0xc6, 0x39, 0xbe, 0x55, 0xe5, 0xee, 0xbc, 0x2a, 0x57, 0xf7, 0x3d,
  0x77, 0x06, 0xbe, 0x3e, 0x40, 0xc1, 0x19, 0xbe, 0x74, 0x68, 0x0c, 0x3e,
  0xf5, 0x61, 0x18, 0x3d, 0x46, 0x63, 0xeb, 0x3e, 0x5e, 0x6a, 0x1c, 0xbe,
  0xd8, 0x04, 0x9e, 0x3d, 0xb8, 0x01, 0x8c, 0x3e, 0xf4, 0x49, 0x8b, 0x3d,
  0x94, 0x82, 0x52, 0x3e, 0xca, 0xa2, 0xe1, 0xbe, 0xb9, 0x3c, 0x3a, 0xbb,
  0x9f, 0x88, 0x96, 0xbe, 0xd3, 0xaa, 0x34, 0xbe, 0x53, 0xfd, 0x19, 0xbd,
  0x43, 0xf1, 0x3c, 0xbe, 0x30, 0xc9, 0xe8, 0x3d, 0x33, 0xf1, 0xcd, 0xbd,
  0xca, 0xf8, 0x0d, 0x3e, 0x4b, 0x48, 0xb4, 0xbd, 0xe0, 0x7a, 0x47, 0x3e,
  0xe2, 0xa0, 0xa2, 0xbe, 0x38, 0xf7, 0x8a, 0xbe, 0x23, 0xf9, 0x97, 0x3e,
  0x49, 0xac, 0x50, 0xbd, 0x47, 0xd8, 0xe8, 0x3d, 0x92, 0x58, 0xfd, 0xbe,
  0x97, 0x53, 0x0d, 0x3c, 0xc0, 0xd4, 0xcb, 0x3c, 0x07, 0xba, 0x97, 0xbd,
  0xb0, 0x0f, 0x37, 0xbc, 0x34, 0x56, 0x62, 0xbb, 0xa6, 0x8f, 0x38, 0xbe,
  0x70, 0xb3, 0x07, 0xbd, 0xfa, 0xa6, 0x8c, 0x3e, 0x22, 0xc3, 0x37, 0x3d,
  0xe0, 0x40, 0x32, 0xbd, 0x07, 0x34, 0xc6, 0xbc, 0x6a, 0x4b, 0xd0, 0x3e,
  0x2c, 0x38, 0xe3, 0x3d, 0xbf, 0xbf, 0xb6, 0xbd, 0x32, 0x8f, 0xc3, 0xbd,
  0x1d, 0xd0, 0xb8, 0xbe, 0xc9, 0xbb, 0x02, 0xbe, 0x9f, 0xe9, 0xbd, 0xbd,
  0x3d, 0x33, 0x04, 0xbe, 0x81, 0xe9, 0x60, 0x3b, 0x3e, 0x43, 0x08, 0x3e,
  0xf9, 0x51, 0x9f, 0xbe, 0xe9, 0x24, 0xbb, 0xbd, 0x6f, 0x95, 0x25, 0x3e,
  0x3d, 0xad, 0xce, 0xbd, 0x4f, 0xf5, 0x17, 0xbe, 0xd4, 0xb0, 0x9c, 0xbe,
  0x84, 0x5e, 0xd2, 0x3e, 0x29, 0x7a, 0x82, 0xbe, 0x0a, 0x21, 0xbb, 0xbb,
  0xc8, 0xba, 0x22, 0xbe, 0x6f, 0xdc, 0xce, 0xbe, 0x58, 0x91, 0x34, 0xbe,
  0x61, 0x71, 0x0f, 0x3d, 0x7a, 0x43, 0x3c, 0xbe, 0x97, 0xfe, 0x00, 0xbc,
  0x23, 0x33, 0xde, 0x3b, 0xba, 0x8c, 0x6c, 0xbe, 0x88, 0xdf, 0x37, 0xbe,
  0x08, 0x24, 0x88, 0x3e, 0xc2, 0xb6, 0x14, 0xbf, 0x08, 0xfe, 0xb2, 0xbd,
  0x0f, 0x79, 0x99, 0xbe, 0xac, 0x1e, 0x7b, 0x3e, 0x8c, 0xca, 0xf6, 0x3d,
  0x7f, 0x30, 0x39, 0xbc, 0x27, 0xaf, 0xb5, 0x3e, 0x5d, 0x8f, 0xb1, 0xbe,
  0xdd, 0x25, 0x4d, 0xbd, 0x0a, 0x4c, 0x46, 0x3d, 0xb8, 0x1a, 0xc6, 0xbe,
  0xde, 0x43, 0x29, 0x3c, 0x9e, 0xd6, 0x21, 0x3c, 0x07, 0x57, 0x7d, 0xbd,
  0x9e, 0xb1, 0x15, 0xbe, 0x1d, 0xfb, 0x90, 0x3c, 0xb5, 0x20, 0x36, 0xbf,
  0x09, 0xa1, 0x5b, 0x3e, 0x6b, 0xfc, 0x3d, 0xbd, 0x5f, 0x3d, 0xbf, 0x3d,
  0x65, 0xc9, 0xa0, 0x3e, 0x99, 0xad, 0x9e, 0xbc, 0x9f, 0xe2, 0x1c, 0x3e,
  0x01, 0x95, 0x89, 0x3c, 0xd4, 0xa9, 0x76, 0xbe, 0xc4, 0xf5, 0x9d, 0x3e,
  0xd5, 0xbc, 0xbc, 0xbd, 0x74, 0x92, 0x07, 0xbf, 0x82, 0xb1, 0x65, 0x3d,
  0x66, 0x4b, 0xe7, 0xbd, 0x82, 0x7d, 0x11, 0x3e, 0xbf, 0x3c, 0x93, 0xbe,
  0xff, 0xb2, 0x69, 0x3e, 0xbd, 0xe2, 0x75, 0xbc, 0xdc, 0xa8, 0x5c, 0x3e,
  0x2b, 0xb5, 0x5e, 0xbe, 0x37, 0x6f, 0x6d, 0xbd, 0xcc, 0x84, 0x47, 0xbe,
  0xce, 0xdd, 0xdd, 0x3c, 0xf8, 0x8a, 0x0f, 0x3e, 0x1f, 0x7c, 0x8d, 0x3e,
  0x3a, 0x3e, 0x70, 0x3e, 0xa3, 0x81, 0x8a, 0xbe, 0x50, 0xa7, 0xa2, 0xbe,
  0xd4, 0xa1, 0x37, 0x3e, 0xad, 0x5e, 0xae, 0xbd, 0x18, 0x2a, 0x11, 0x3e,
  0xc4, 0x90, 0xd8, 0xbe, 0x92, 0xc8, 0xff, 0x3d, 0xea, 0x52, 0x4a, 0x3e,
  0x1a, 0x24, 0x8f, 0x3d, 0xd3, 0x9b, 0xea, 0xbd, 0x1b, 0x9e, 0x47, 0x3d,
  0x80, 0x2c, 0xfd, 0xbd, 0x5b, 0x7d, 0x95, 0xbc, 0x19, 0xf4, 0x3c, 0x3d,
  0x55, 0x6d, 0x00, 0xbe, 0x9d, 0x1e, 0x2e, 0xbd, 0x81, 0x74, 0x3e, 0xbd,
  0x89, 0xc4, 0xb0, 0xbd, 0xb6, 0x7b, 0x50, 0x3e, 0xe0, 0xe8, 0xdc, 0xbd,
  0x6c, 0x78, 0x3c, 0x3a, 0x8a, 0xc1, 0x95, 0x3d, 0xac, 0xfe, 0x0e, 0xbe,
  0x98, 0xc8, 0x99, 0x3c, 0x8e, 0xd7, 0x2b, 0x3d, 0x66, 0x10, 0xc5, 0xbd,
  0x7d, 0xd0, 0xa3, 0xbd, 0x74, 0xf6, 0x54, 0xbe, 0x1b, 0x88, 0x38, 0x3e,
  0x78, 0x32, 0x23, 0x3e, 0x9d, 0x28, 0x6c, 0x3e, 0x75, 0x97, 0x85, 0xbd,
  0xb1, 0x23, 0x07, 0x3e, 0xee, 0x8c, 0x33, 0xbe, 0x93, 0x8e, 0x0d, 0x3e,
  0x59, 0x26, 0x20, 0xbe, 0xc6, 0xee, 0xa7, 0x3e, 0x31, 0xca, 0x2e, 0xbe,
  0xca, 0xe2, 0x1c, 0xbe, 0xb0, 0x94, 0x7f, 0xbd, 0x6e, 0x92, 0x18, 0x3e,
  0x5e, 0xfb, 0x90, 0x3a, 0x21, 0xec, 0xbe, 0xbc, 0xb4, 0xf6, 0x57, 0xbd,
  0xbd, 0x35, 0x33, 0x3e, 0x47, 0xc0, 0xfa, 0x3c, 0xc8, 0xe3, 0x81, 0xbe,
  0x8f, 0x0a, 0xe0, 0xbc, 0xb5, 0xcb, 0x1c, 0xbe, 0xb4, 0x56, 0x91, 0xbe,
  0xb8, 0xf2, 0x2a, 0xbd, 0x6c, 0xe9, 0x28, 0x3e, 0x79, 0x1e, 0xd1, 0x3d,
  0xa2, 0x15, 0x72, 0xbe, 0x9f, 0x25, 0x46, 0xbe, 0x01, 0x87, 0x95, 0xbd,
  0xd1, 0x63, 0x61, 0xbb, 0x51, 0xda, 0x06, 0xbc, 0xc2, 0x40, 0x38, 0x3e,
  0xa1, 0xcf, 0x3b, 0x3e, 0xe5, 0x7c, 0x90, 0xbb, 0x46, 0xc1, 0xab, 0x3d,
  0x0e, 0x57, 0xdd, 0x3d, 0x95, 0xfa, 0x23, 0xbe, 0x78, 0xba, 0x06, 0xbb,
  0xd3, 0x4c, 0x58, 0xbe, 0xde, 0x8f, 0x43, 0xbd, 0x70, 0xb0, 0x9f, 0xbd,
  0x7c, 0x14, 0xd3, 0xbd, 0xe5, 0xf0, 0x9d, 0xbc, 0xd1, 0xb1, 0xa1, 0xbc,
  0xa1, 0x97, 0xb8, 0x3c, 0x06, 0xfb, 0x57, 0x3d, 0xd3, 0x0b, 0x5a, 0x3e,
  0x49, 0x05, 0xe6, 0x3c, 0x4f, 0x18, 0xa6, 0xbd, 0xfa, 0x22, 0x8d, 0x3e,
  0xdb, 0x80, 0x74, 0xbb, 0x16, 0x31, 0x4f, 0x3d, 0xe1, 0xbb, 0x11, 0xbe,
  0x78, 0x84, 0x59, 0x3d, 0x2f, 0xfd, 0x55, 0xbe, 0x82, 0x53, 0x44, 0xbe,
  0x11, 0xe9, 0x81, 0xbe, 0x36, 0x8e, 0x34, 0x3d, 0x66, 0x2f, 0xbe, 0xbc,
  0xe4, 0xa0, 0xa1, 0xbc, 0xbd, 0xfe, 0x94, 0x3d, 0x73, 0xe8, 0x58, 0xbd,
  0x21, 0x47, 0x36, 0x3d, 0x26, 0x97, 0x24, 0x3e, 0xc7, 0xe6, 0x17, 0x3e,
  0x68, 0xfb, 0x71, 0x3e, 0xf0, 0x01, 0xe9, 0xbd, 0x75, 0xd6, 0x82, 0xbd,
  0xd0, 0x6f, 0x78, 0xbd, 0xb1, 0x86, 0xb4, 0xbc, 0x27, 0xe4, 0x5a, 0xbe,
  0x9d, 0xea, 0x72, 0x3d, 0xba, 0xbe, 0x59, 0xbd, 0x7d, 0xca, 0x3c, 0xbd,
  0xc8, 0x6c, 0xc3, 0xbe, 0x3b, 0x79, 0x91, 0xbd, 0x7b, 0xa6, 0x7e, 0x3f,
  0xd6, 0x3b, 0x98, 0x3d, 0x0f, 0x75, 0x40, 0xbe, 0x4c, 0x93, 0x95, 0xbe,
  0xdc, 0x44, 0x2a, 0x3c, 0x8f, 0x8a, 0xe4, 0xbc, 0x25, 0xa4, 0x82, 0xbe,
  0xe8, 0xb5, 0x5e, 0x3d, 0xa8, 0xcb, 0x2f, 0xbe, 0x6e, 0x5c, 0x32, 0x3e,
  0x0c, 0x60, 0xcd, 0xbe, 0xa0, 0x90, 0x16, 0xbc, 0xd0, 0x94, 0x34, 0xbd,
  0x7a, 0x05, 0xf9, 0xbd, 0x8f, 0x27, 0x72, 0xbe, 0xef, 0x95, 0x95, 0x3d,
  0x2e, 0x37, 0x4f, 0x3f, 0x26, 0xb2, 0x19, 0xbe, 0x53, 0xe2, 0x71, 0xbe,
  0x14, 0x53, 0xb9, 0xbe, 0x22, 0x4b, 0x4d, 0xbe, 0xbe, 0xf7, 0xaf, 0xbc,
  0x65, 0x12, 0x21, 0xbe, 0x7d, 0xf8, 0xe4, 0xbd, 0x9a, 0xc0, 0x7b, 0xbe,
  0x31, 0xcb, 0x80, 0xbd, 0x41, 0x8e, 0x33, 0xbe, 0x19, 0xbd, 0x08, 0x3e,
  0xd3, 0xef, 0xc6, 0x3d, 0xad, 0x39, 0x19, 0xbe, 0x8f, 0x02, 0x98, 0x3d,
  0xd4, 0x05, 0x11, 0x3c, 0xca, 0xcb, 0x58, 0x3f, 0xd8, 0xc8, 0x28, 0xbe,
  0x2e, 0xe6, 0x75, 0xbc, 0x30, 0x80, 0xd9, 0xbd, 0x67, 0x47, 0x87, 0xbc,
  0x21, 0xab, 0x93, 0xbe, 0xe5, 0x64, 0x03, 0x3e, 0xdd, 0xe4, 0x87, 0xbe,
  0x56, 0xa3, 0x95, 0xbd, 0x53, 0x86, 0x2f, 0xbe, 0x02, 0x76, 0x11, 0xbe,
  0x97, 0x87, 0x11, 0x3e, 0x99, 0x04, 0x65, 0x3c, 0xb4, 0x69, 0x1a, 0xbe,
  0x01, 0x3c, 0x14, 0xbc, 0xbe, 0x1a, 0x70, 0xbe, 0x32, 0xee, 0x9e, 0x3f,
  0x65, 0x69, 0x05, 0xbe, 0x18, 0x3b, 0x41, 0xbe, 0x3c, 0x67, 0x14, 0xbe,
  0x2d, 0x41, 0xf3, 0xbd, 0x2c, 0x96, 0x41, 0xbe, 0xbe, 0x67, 0xe7, 0x3d,
  0x54, 0x0c, 0x1d, 0xbe, 0x81, 0x9c, 0x09, 0x3c, 0xf5, 0x46, 0xce, 0xbc,
  0x5c, 0xef, 0x26, 0xbe, 0x44, 0x17, 0x58, 0x3d, 0xd6, 0x8b, 0x2c, 0xbd,
  0x3b, 0x82, 0x76, 0xbd, 0xb8, 0x7c, 0xee, 0xbd, 0x1f, 0x41, 0xd3, 0x3d,
  0xb4, 0x46, 0x3f, 0x3f, 0xa2, 0x94, 0x79, 0xbe, 0x0e, 0xbb, 0x06, 0xbd,
  0xa7, 0x5b, 0xab, 0xbe, 0x10, 0x15, 0xe8, 0x3d, 0xea, 0x21, 0x49, 0x3e,
  0x11, 0x08, 0x0e, 0xbe, 0xa1, 0x7d, 0x20, 0x3d, 0x26, 0x22, 0x52, 0xbe,
  0xad, 0xcb, 0x06, 0xbe, 0x8c, 0xf1, 0x90, 0xbe, 0xa0, 0x47, 0x1b, 0x3c,
  0xac, 0xb9, 0x10, 0x3c, 0x2f, 0xac, 0x6c, 0x3d, 0x32, 0x17, 0x47, 0xbe,
  0xeb, 0x0a, 0x4a, 0xbe, 0xa1, 0x8b, 0x85, 0x3f, 0x6d, 0x98, 0xf9, 0x3d,
  0x9f, 0xbe, 0x36, 0xbe, 0xdd, 0x95, 0x7b, 0xbe, 0xf9, 0x8b, 0xc0, 0xbd,
  0x1c, 0x1a, 0xfa, 0x3c, 0xf3, 0x58, 0x31, 0x3d, 0xb8, 0x0d, 0x50, 0xbe,
  0x35, 0x6b, 0x32, 0xbe, 0xf5, 0xe9, 0x46, 0x3e, 0x29, 0x53, 0x56, 0xbe,
  0xdd, 0x2e, 0x4e, 0x3e, 0x1d, 0x53, 0x12, 0xbe, 0xec, 0x72, 0x2b, 0xbe,
  0x57, 0xfa, 0xad, 0xbd, 0xab, 0x56, 0x81, 0xbd, 0xf4, 0x1a, 0xd7, 0x3e,
  0x20, 0x8d, 0xcd, 0xbd, 0x6d, 0xdf, 0xaa, 0xbe, 0x71, 0xb9, 0x4c, 0xbe,
  0x6b, 0x03, 0x56, 0xbe, 0x6d, 0x8d, 0x1b, 0xbe, 0x37, 0x68, 0xb4, 0xbe,
  0x86, 0x33, 0x51, 0x3c, 0x73, 0x8f, 0xb6, 0xbd, 0xe6, 0x19, 0x16, 0xbe,
  0x74, 0x30, 0xa1, 0xbd, 0x43, 0x37, 0x8a, 0x3a, 0x6a, 0x78, 0x86, 0xbd,
  0xbc, 0x8a, 0x23, 0x3d, 0xe0, 0x6d, 0x53, 0xbe, 0xac, 0x01, 0xf1, 0xbd,
  0xf4, 0xa2, 0xfd, 0xbd, 0xb1, 0x83, 0xe8, 0xbd, 0x5e, 0x68, 0x04, 0x3e,
  0x17, 0x2a, 0xf3, 0xbd, 0xb1, 0x6e, 0xb8, 0x3c, 0xe8, 0xb8, 0x54, 0xbe,
  0xc2, 0x1a, 0x5e, 0xbe, 0x7b, 0x63, 0x06, 0xbd, 0x50, 0x38, 0x0c, 0x3d,
  0x46, 0x18, 0x57, 0xba, 0x59, 0xec, 0x35, 0xbe, 0xc9, 0x14, 0x6c, 0xbd,
  0xd6, 0x74, 0xda, 0x3d, 0x00, 0x28, 0x96, 0xbc, 0xa0, 0x35, 0xab, 0xbd,
  0xda, 0xaa, 0xd3, 0x3d, 0x41, 0x78, 0x35, 0x3e, 0xb0, 0x6e, 0x1d, 0x3e,
  0xba, 0x31, 0x04, 0xbe, 0xe0, 0xcf, 0x32, 0xbe, 0x83, 0x1f, 0x34, 0xbe,
  0xee, 0x47, 0x08, 0x3d, 0x2e, 0x7d, 0xd3, 0xbd, 0x71, 0xeb, 0xfe, 0xbd,
  0x17, 0xad, 0x9f, 0xbc, 0xda, 0xf2, 0xee, 0x3c, 0x1f, 0xb7, 0x82, 0xbe,
  0x0f, 0x9c, 0x25, 0x3e, 0x93, 0xe2, 0x20, 0xbe, 0x73, 0xdf, 0x86, 0xbc,
  0x70, 0x2d, 0x0e, 0xbe, 0x55, 0x64, 0x18, 0x3c, 0x5f, 0x97, 0xdb, 0xbb,
  0x63, 0xb9, 0x69, 0x3d, 0x47, 0x99, 0x10, 0x3e, 0xba, 0xb0, 0x11, 0xbe,
  0x95, 0xaf, 0x89, 0xbd, 0x00, 0x9a, 0x5f, 0xbe, 0xa4, 0xf1, 0x14, 0x3d,
  0x4a, 0x4b, 0x77, 0xbc, 0x8a, 0xcc, 0x9e, 0xbd, 0x4f, 0xbb, 0xb1, 0xbe,
  0x3f, 0xad, 0xb2, 0x3c, 0x41, 0x98, 0xf3, 0x3d, 0x7d, 0xe9, 0x34, 0xbe,
  0x84, 0x26, 0x18, 0xbd, 0x42, 0x15, 0x62, 0xbc, 0x1e, 0x51, 0xcd, 0xbc,
  0x11, 0x84, 0xdc, 0xbd, 0x8c, 0xe4, 0x3c, 0x3d, 0xd6, 0xc3, 0xb9, 0x3d,
  0x11, 0x6b, 0x60, 0xbe, 0x87, 0x94, 0xa3, 0xbd, 0x22, 0xb3, 0xf9, 0xbd,
  0xa4, 0xa1, 0x6e, 0x3d, 0xd7, 0xac, 0x03, 0x3d, 0xc0, 0xf1, 0x3d, 0x3e,
  0x85, 0x05, 0x8d, 0xbe, 0xcb, 0xe2, 0x15, 0xbe, 0x88, 0x44, 0x71, 0x3d,
  0xd8, 0x5c, 0xb7, 0xbd, 0xa0, 0x6a, 0x4d, 0x3d, 0xad, 0x41, 0x62, 0xbe,
  0x03, 0xcd, 0x17, 0xbe, 0xf6, 0x4b, 0x93, 0x3c, 0x33, 0xb6, 0xb7, 0xbd,
  0xe6, 0xbf, 0x75, 0xbd, 0x88, 0x81, 0x4e, 0xbe, 0x9d, 0xe0, 0x4b, 0xbe,
  0xb9, 0xae, 0x40, 0x3d, 0x10, 0xe8, 0x81, 0x3d, 0xcd, 0xd6, 0x2d, 0x3e,
  0xcc, 0x21, 0xfb, 0xbd, 0xb2, 0x0a, 0x04, 0xbe, 0x00, 0xc8, 0x0d, 0xbe,
  0x95, 0xec, 0xbb, 0x3d, 0xe1, 0xca, 0xcd, 0x3d, 0xb0, 0x22, 0xbf, 0xbc,
  0x0e, 0x28, 0xe5, 0xbd, 0xe2, 0x3a, 0x0a, 0x3a, 0x43, 0x5a, 0x4c, 0xbd,
  0x19, 0x1b, 0x78, 0xbe, 0x25, 0x0d, 0xd4, 0x3d, 0x9b, 0xb3, 0xdf, 0xbd,
  0x81, 0xd0, 0x3e, 0xbc, 0x18, 0xb2, 0xab, 0xbd, 0x25, 0x1e, 0xe6, 0x3c,
  0xc3, 0x3d, 0x61, 0x3d, 0x9e, 0x7f, 0x3a, 0x3e, 0x7f, 0xf8, 0xb8, 0x3d,
  0x00, 0xf0, 0x6e, 0xbe, 0xee, 0x46, 0x9f, 0x3d, 0xf4, 0x97, 0x1c, 0x3d,
  0xe4, 0xb5, 0x0c, 0x3e, 0xc1, 0x77, 0xeb, 0xbd, 0x26, 0xe2, 0x0d, 0xbe,
  0x7a, 0xa7, 0xa5, 0xbd, 0x0f, 0x3e, 0x40, 0x3c, 0xd9, 0xba, 0x70, 0xbe,
  0xf9, 0xd5, 0x4b, 0x3d, 0x5f, 0x05, 0x38, 0x3d, 0xdc, 0x2e, 0x28, 0x3d,
  0x9c, 0x29, 0x0a, 0xbe, 0x2c, 0xac, 0xc5, 0x3c, 0x98, 0x14, 0xf2, 0xbd,
  0x46, 0xfe, 0xff, 0xff, 0x10, 0x00, 0x00, 0x00, 0x05, 0x00, 0x00, 0x00,
  0x14, 0x00, 0x00, 0x00, 0x2c, 0x00, 0x00, 0x00, 0x02, 0x00, 0x00, 0x00,
  0x10, 0x00, 0x00, 0x00, 0x70, 0x00, 0x00, 0x00, 0x17, 0x00, 0x00, 0x00,
  0x73, 0x65, 0x71, 0x75, 0x65, 0x6e, 0x74, 0x69, 0x61, 0x6c, 0x2f, 0x64,
  0x65, 0x6e, 0x73, 0x65, 0x2f, 0x4d, 0x61, 0x74, 0x4d, 0x75, 0x6c, 0x00,
  0x34, 0xfe, 0xff, 0xff, 0x2a, 0xff, 0xff, 0xff, 0x04, 0x00, 0x00, 0x00,
  0x08, 0x00, 0x00, 0x00, 0xff, 0xff, 0xff, 0xff, 0x70, 0x00, 0x00, 0x00,
  0x00, 0x00, 0x0e, 0x00, 0x18, 0x00, 0x08, 0x00, 0x07, 0x00, 0x0c, 0x00,
  0x10, 0x00, 0x14, 0x00, 0x0e, 0x00, 0x00, 0x00, 0x00, 0x00, 0x00, 0x02,
  0x10, 0x00, 0x00, 0x00, 0x04, 0x00, 0x00, 0x00, 0x10, 0x00, 0x00, 0x00,
  0x2c, 0x00, 0x00, 0x00, 0x01, 0x00, 0x00, 0x00, 0x02, 0x00, 0x00, 0x00,
  0x18, 0x00, 0x00, 0x00, 0x73, 0x65, 0x71, 0x75, 0x65, 0x6e, 0x74, 0x69,
  0x61, 0x6c, 0x2f, 0x66, 0x6c, 0x61, 0x74, 0x74, 0x65, 0x6e, 0x2f, 0x43,
  0x6f, 0x6e, 0x73, 0x74, 0x00, 0x00, 0x00, 0x00, 0x9c, 0xfe, 0xff, 0xff,
  0x92, 0xff, 0xff, 0xff, 0x04, 0x00, 0x00, 0x00, 0x10, 0x00, 0x00, 0x00,
  0xa9, 0x1b, 0x65, 0xbf, 0xf6, 0x20, 0x72, 0xc0, 0x22, 0x9f, 0x00, 0x3f,
  0x74, 0x01, 0x58, 0x3f, 0x0a, 0xff, 0xff, 0xff, 0x10, 0x00, 0x00, 0x00,
  0x03, 0x00, 0x00, 0x00, 0x10, 0x00, 0x00, 0x00, 0x3c, 0x00, 0x00, 0x00,
  0x01, 0x00, 0x00, 0x00, 0x04, 0x00, 0x00, 0x00, 0x29, 0x00, 0x00, 0x00,
  0x73, 0x65, 0x71, 0x75, 0x65, 0x6e, 0x74, 0x69, 0x61, 0x6c, 0x2f, 0x64,
  0x65, 0x6e, 0x73, 0x65, 0x5f, 0x31, 0x2f, 0x42, 0x69, 0x61, 0x73, 0x41,
  0x64, 0x64, 0x2f, 0x52, 0x65, 0x61, 0x64, 0x56, 0x61, 0x72, 0x69, 0x61,
  0x62, 0x6c, 0x65, 0x4f, 0x70, 0x00, 0x00, 0x00, 0x60, 0xff, 0xff, 0xff,
  0x00, 0x00, 0x06, 0x00, 0x08, 0x00, 0x04, 0x00, 0x06, 0x00, 0x00, 0x00,
  0x04, 0x00, 0x00, 0x00, 0x40, 0x00, 0x00, 0x00, 0xf6, 0xb2, 0x47, 0xbe,
  0x52, 0x64, 0x26, 0x3f, 0x09, 0xdc, 0x88, 0xbe, 0x77, 0x0f, 0x07, 0xbf,
  0xd4, 0x88, 0x61, 0xbe, 0xb4, 0x0a, 0x11, 0xbe, 0x9e, 0x3a, 0x66, 0xbe,
  0x5b, 0x66, 0xac, 0xbe, 0xcc, 0x91, 0x19, 0x3d, 0xf2, 0xae, 0x89, 0xbe,
  0x59, 0x43, 0x76, 0xbe, 0x24, 0x62, 0x82, 0xbe, 0x4d, 0x55, 0x1e, 0x3f,
  0x47, 0x58, 0xae, 0xbe, 0xd9, 0x24, 0x02, 0x3f, 0x7d, 0xf2, 0x6a, 0xbe,
  0xae, 0xff, 0xff, 0xff, 0x10, 0x00, 0x00, 0x00, 0x02, 0x00, 0x00, 0x00,
  0x10, 0x00, 0x00, 0x00, 0x3c, 0x00, 0x00, 0x00, 0x01, 0x00, 0x00, 0x00,
  0x10, 0x00, 0x00, 0x00, 0x27, 0x00, 0x00, 0x00, 0x73, 0x65, 0x71, 0x75,
  0x65, 0x6e, 0x74, 0x69, 0x61, 0x6c, 0x2f, 0x64, 0x65, 0x6e, 0x73, 0x65,
  0x2f, 0x42, 0x69, 0x61, 0x73, 0x41, 0x64, 0x64, 0x2f, 0x52, 0x65, 0x61,
  0x64, 0x56, 0x61, 0x72, 0x69, 0x61, 0x62, 0x6c, 0x65, 0x4f, 0x70, 0x00,
  0x04, 0x00, 0x06, 0x00, 0x04, 0x00, 0x00, 0x00, 0x00, 0x00, 0x0e, 0x00,
  0x14, 0x00, 0x04, 0x00, 0x00, 0x00, 0x08, 0x00, 0x0c, 0x00, 0x10, 0x00,
  0x0e, 0x00, 0x00, 0x00, 0x10, 0x00, 0x00, 0x00, 0x01, 0x00, 0x00, 0x00,
  0x1c, 0x00, 0x00, 0x00, 0x2c, 0x00, 0x00, 0x00, 0x04, 0x00, 0x00, 0x00,
  0x01, 0x00, 0x00, 0x00, 0x40, 0x00, 0x00, 0x00, 0x03, 0x00, 0x00, 0x00,
  0x01, 0x00, 0x00, 0x00, 0x0c, 0x00, 0x00, 0x00, 0x63, 0x6f, 0x6e, 0x76,
  0x32, 0x64, 0x5f, 0x69, 0x6e, 0x70, 0x75, 0x74, 0x00, 0x00, 0x00, 0x00,
  0xfc, 0xff, 0xff, 0xff, 0x04, 0x00, 0x04, 0x00, 0x04, 0x00, 0x00, 0x00
};


unsigned int model_tflite_len = 12384 ;// Fill the int in `src/model.cc` here